{
  "version": "1.0",
  "truncation": null,
  "padding": null,
  "added_tokens": [],
  "normalizer": null,
  "pre_tokenizer": {
    "type": "Whitespace"
  },
  "post_processor": null,
  "decoder": null,
  "model": {
    "type": "BPE",
    "dropout": null,
    "unk_token": "[UNK]",
    "continuing_subword_prefix": null,
    "end_of_word_suffix": null,
    "fuse_unk": false,
    "vocab": {
      "!": 0,
      "\"": 1,
      "#": 2,
      "$": 3,
      "%": 4,
      "&": 5,
      "'": 6,
      "(": 7,
      ")": 8,
      "*": 9,
      "+": 10,
      ",": 11,
      "-": 12,
      ".": 13,
      "/": 14,
      "0": 15,
      "1": 16,
      "2": 17,
      "3": 18,
      "4": 19,
      "5": 20,
      "6": 21,
      "7": 22,
      "8": 23,
      "9": 24,
      ":": 25,
      ";": 26,
      "<": 27,
      "=": 28,
      ">": 29,
      "?": 30,
      "@": 31,
      "A": 32,
      "B": 33,
      "C": 34,
      "D": 35,
      "E": 36,
      "F": 37,
      "G": 38,
      "H": 39,
      "I": 40,
      "J": 41,
      "K": 42,
      "L": 43,
      "M": 44,
      "N": 45,
      "O": 46,
      "P": 47,
      "Q": 48,
      "R": 49,
      "S": 50,
      "T": 51,
      "U": 52,
      "V": 53,
      "W": 54,
      "X": 55,
      "Y": 56,
      "Z": 57,
      "[": 58,
      "\\": 59,
      "]": 60,
      "^": 61,
      "_": 62,
      "`": 63,
      "a": 64,
      "b": 65,
      "c": 66,
      "d": 67,
      "e": 68,
      "f": 69,
      "g": 70,
      "h": 71,
      "i": 72,
      "j": 73,
      "k": 74,
      "l": 75,
      "m": 76,
      "n": 77,
      "o": 78,
      "p": 79,
      "q": 80,
      "r": 81,
      "s": 82,
      "t": 83,
      "u": 84,
      "v": 85,
      "w": 86,
      "x": 87,
      "y": 88,
      "z": 89,
      "{": 90,
      "|": 91,
      "}": 92,
      "~": 93,
      "": 94,
      "": 95,
      "": 96,
      "¡": 97,
      "¢": 98,
      "£": 99,
      "¤": 100,
      "¥": 101,
      "§": 102,
      "¨": 103,
      "©": 104,
      "ª": 105,
      "«": 106,
      "¬": 107,
      "®": 108,
      "¯": 109,
      "°": 110,
      "±": 111,
      "²": 112,
      "³": 113,
      "´": 114,
      "µ": 115,
      "¶": 116,
      "·": 117,
      "¹": 118,
      "º": 119,
      "»": 120,
      "¼": 121,
      "½": 122,
      "¾": 123,
      "¿": 124,
      "À": 125,
      "Á": 126,
      "Â": 127,
      "Ã": 128,
      "Ä": 129,
      "Å": 130,
      "Æ": 131,
      "Ç": 132,
      "È": 133,
      "É": 134,
      "Ê": 135,
      "Í": 136,
      "Î": 137,
      "Ð": 138,
      "Ñ": 139,
      "Ò": 140,
      "Ó": 141,
      "Ô": 142,
      "Õ": 143,
      "Ö": 144,
      "×": 145,
      "Ø": 146,
      "Ú": 147,
      "Û": 148,
      "Ü": 149,
      "Þ": 150,
      "ß": 151,
      "à": 152,
      "á": 153,
      "â": 154,
      "ã": 155,
      "ä": 156,
      "å": 157,
      "æ": 158,
      "ç": 159,
      "è": 160,
      "é": 161,
      "ê": 162,
      "ë": 163,
      "ì": 164,
      "í": 165,
      "î": 166,
      "ï": 167,
      "ð": 168,
      "ñ": 169,
      "ò": 170,
      "ó": 171,
      "ô": 172,
      "õ": 173,
      "ö": 174,
      "÷": 175,
      "ø": 176,
      "ù": 177,
      "ú": 178,
      "û": 179,
      "ü": 180,
      "ý": 181,
      "þ": 182,
      "ÿ": 183,
      "Ā": 184,
      "ā": 185,
      "ă": 186,
      "Ą": 187,
      "ą": 188,
      "Ć": 189,
      "ć": 190,
      "Ĉ": 191,
      "ĉ": 192,
      "Ċ": 193,
      "ċ": 194,
      "Č": 195,
      "č": 196,
      "Ď": 197,
      "ď": 198,
      "Đ": 199,
      "đ": 200,
      "Ē": 201,
      "ē": 202,
      "Ĕ": 203,
      "ĕ": 204,
      "Ė": 205,
      "ė": 206,
      "Ę": 207,
      "ę": 208,
      "ě": 209,
      "ĝ": 210,
      "Ğ": 211,
      "ğ": 212,
      "Ġ": 213,
      "ġ": 214,
      "Ģ": 215,
      "ĥ": 216,
      "Ħ": 217,
      "ħ": 218,
      "ĩ": 219,
      "Ī": 220,
      "ī": 221,
      "ĭ": 222,
      "į": 223,
      "İ": 224,
      "ı": 225,
      "Ĳ": 226,
      "ĳ": 227,
      "ĵ": 228,
      "Ķ": 229,
      "ķ": 230,
      "ĺ": 231,
      "Ļ": 232,
      "ļ": 233,
      "Ľ": 234,
      "ľ": 235,
      "ŀ": 236,
      "Ł": 237,
      "ł": 238,
      "ń": 239,
      "Ņ": 240,
      "ņ": 241,
      "ň": 242,
      "ŉ": 243,
      "Ŋ": 244,
      "ŋ": 245,
      "Ō": 246,
      "ō": 247,
      "Ŏ": 248,
      "ŏ": 249,
      "ő": 250,
      "Œ": 251,
      "œ": 252,
      "ŕ": 253,
      "ŗ": 254,
      "Ř": 255,
      "ř": 256,
      "Ś": 257,
      "ś": 258,
      "ŝ": 259,
      "Ş": 260,
      "ş": 261,
      "Š": 262,
      "š": 263,
      "Ţ": 264,
      "ţ": 265,
      "ť": 266,
      "ũ": 267,
      "Ū": 268,
      "ū": 269,
      "ŭ": 270,
      "Ů": 271,
      "ů": 272,
      "ű": 273,
      "ų": 274,
      "ŵ": 275,
      "ŷ": 276,
      "Ÿ": 277,
      "Ź": 278,
      "ź": 279,
      "Ż": 280,
      "ż": 281,
      "Ž": 282,
      "ž": 283,
      "ſ": 284,
      "ƀ": 285,
      "Ɔ": 286,
      "Ɖ": 287,
      "Ǝ": 288,
      "Ə": 289,
      "Ɛ": 290,
      "ƒ": 291,
      "Ɣ": 292,
      "ƕ": 293,
      "ƛ": 294,
      "ơ": 295,
      "ƣ": 296,
      "ư": 297,
      "Ʋ": 298,
      "Ʒ": 299,
      "ƿ": 300,
      "ǀ": 301,
      "ǁ": 302,
      "ǂ": 303,
      "ǎ": 304,
      "ǐ": 305,
      "ǒ": 306,
      "ǔ": 307,
      "ǚ": 308,
      "ǝ": 309,
      "ǣ": 310,
      "ǥ": 311,
      "ǩ": 312,
      "Ǫ": 313,
      "ǫ": 314,
      "ǭ": 315,
      "ǵ": 316,
      "Ƿ": 317,
      "ǹ": 318,
      "Ǿ": 319,
      "ǿ": 320,
      "ȁ": 321,
      "ȅ": 322,
      "Ș": 323,
      "ș": 324,
      "Ț": 325,
      "ț": 326,
      "Ȝ": 327,
      "ȝ": 328,
      "Ȣ": 329,
      "ȯ": 330,
      "ȳ": 331,
      "ȷ": 332,
      "ȸ": 333,
      "ȹ": 334,
      "Ɂ": 335,
      "ɂ": 336,
      "Ʉ": 337,
      "ɐ": 338,
      "ɑ": 339,
      "ɒ": 340,
      "ɓ": 341,
      "ɔ": 342,
      "ɕ": 343,
      "ɖ": 344,
      "ɗ": 345,
      "ə": 346,
      "ɚ": 347,
      "ɛ": 348,
      "ɜ": 349,
      "ɟ": 350,
      "ɠ": 351,
      "ɡ": 352,
      "ɣ": 353,
      "ɤ": 354,
      "ɥ": 355,
      "ɦ": 356,
      "ɨ": 357,
      "ɪ": 358,
      "ɬ": 359,
      "ɲ": 360,
      "ɳ": 361,
      "ɴ": 362,
      "ɸ": 363,
      "ɹ": 364,
      "ɺ": 365,
      "ɻ": 366,
      "ɽ": 367,
      "ɾ": 368,
      "ʀ": 369,
      "ʁ": 370,
      "ʃ": 371,
      "ʄ": 372,
      "ʉ": 373,
      "ʊ": 374,
      "ʋ": 375,
      "ʌ": 376,
      "ʍ": 377,
      "ʎ": 378,
      "ʒ": 379,
      "ʔ": 380,
      "ʕ": 381,
      "ʙ": 382,
      "ʝ": 383,
      "ʤ": 384,
      "ʰ": 385,
      "ʲ": 386,
      "ʷ": 387,
      "ʹ": 388,
      "ʻ": 389,
      "ʼ": 390,
      "ʽ": 391,
      "ʾ": 392,
      "ʿ": 393,
      "ˀ": 394,
      "ˁ": 395,
      "ˆ": 396,
      "ˈ": 397,
      "ˊ": 398,
      "ˌ": 399,
      "ː": 400,
      "˘": 401,
      "˙": 402,
      "˚": 403,
      "˜": 404,
      "ˠ": 405,
      "ˡ": 406,
      "ˣ": 407,
      "̀": 408,
      "́": 409,
      "̂": 410,
      "̃": 411,
      "̄": 412,
      "̆": 413,
      "̇": 414,
      "̈": 415,
      "̊": 416,
      "̍": 417,
      "̑": 418,
      "̓": 419,
      "̔": 420,
      "̜": 421,
      "̝": 422,
      "̞": 423,
      "̠": 424,
      "̣": 425,
      "̤": 426,
      "̥": 427,
      "̨": 428,
      "̩": 429,
      "̪": 430,
      "̯": 431,
      "̱": 432,
      "̲": 433,
      "̶": 434,
      "̸": 435,
      "ͅ": 436,
      "͘": 437,
      "͠": 438,
      "͡": 439,
      "ͣ": 440,
      "ͤ": 441,
      "ͦ": 442,
      "΄": 443,
      "΅": 444,
      "Ά": 445,
      "Ό": 446,
      "ΐ": 447,
      "Α": 448,
      "Β": 449,
      "Γ": 450,
      "Δ": 451,
      "Ε": 452,
      "Ζ": 453,
      "Η": 454,
      "Θ": 455,
      "Ι": 456,
      "Κ": 457,
      "Λ": 458,
      "Μ": 459,
      "Ν": 460,
      "Ξ": 461,
      "Ο": 462,
      "Π": 463,
      "Ρ": 464,
      "Σ": 465,
      "Τ": 466,
      "Υ": 467,
      "Φ": 468,
      "Χ": 469,
      "Ψ": 470,
      "Ω": 471,
      "ά": 472,
      "έ": 473,
      "ή": 474,
      "ί": 475,
      "α": 476,
      "β": 477,
      "γ": 478,
      "δ": 479,
      "ε": 480,
      "ζ": 481,
      "η": 482,
      "θ": 483,
      "ι": 484,
      "κ": 485,
      "λ": 486,
      "μ": 487,
      "ν": 488,
      "ξ": 489,
      "ο": 490,
      "π": 491,
      "ρ": 492,
      "ς": 493,
      "σ": 494,
      "τ": 495,
      "υ": 496,
      "φ": 497,
      "χ": 498,
      "ψ": 499,
      "ω": 500,
      "ϊ": 501,
      "ϋ": 502,
      "ό": 503,
      "ύ": 504,
      "ώ": 505,
      "ϒ": 506,
      "ϕ": 507,
      "ϖ": 508,
      "Ϙ": 509,
      "Ϝ": 510,
      "ϝ": 511,
      "ϯ": 512,
      "ϳ": 513,
      "Ϻ": 514,
      "Є": 515,
      "І": 516,
      "Ј": 517,
      "А": 518,
      "Б": 519,
      "В": 520,
      "Г": 521,
      "Д": 522,
      "Е": 523,
      "Ж": 524,
      "З": 525,
      "И": 526,
      "Й": 527,
      "К": 528,
      "Л": 529,
      "М": 530,
      "Н": 531,
      "О": 532,
      "П": 533,
      "Р": 534,
      "С": 535,
      "Т": 536,
      "У": 537,
      "Ф": 538,
      "Х": 539,
      "Ц": 540,
      "Ч": 541,
      "Ш": 542,
      "Ъ": 543,
      "Ы": 544,
      "Ь": 545,
      "Ю": 546,
      "Я": 547,
      "а": 548,
      "б": 549,
      "в": 550,
      "г": 551,
      "д": 552,
      "е": 553,
      "ж": 554,
      "з": 555,
      "и": 556,
      "й": 557,
      "к": 558,
      "л": 559,
      "м": 560,
      "н": 561,
      "о": 562,
      "п": 563,
      "р": 564,
      "с": 565,
      "т": 566,
      "у": 567,
      "ф": 568,
      "х": 569,
      "ц": 570,
      "ч": 571,
      "ш": 572,
      "щ": 573,
      "ъ": 574,
      "ы": 575,
      "ь": 576,
      "э": 577,
      "ю": 578,
      "я": 579,
      "ё": 580,
      "ђ": 581,
      "ѓ": 582,
      "є": 583,
      "і": 584,
      "ї": 585,
      "ј": 586,
      "љ": 587,
      "њ": 588,
      "ќ": 589,
      "џ": 590,
      "Ѣ": 591,
      "ѣ": 592,
      "ѩ": 593,
      "Ѫ": 594,
      "ѫ": 595,
      "Ѳ": 596,
      "ѳ": 597,
      "ѹ": 598,
      "ґ": 599,
      "ғ": 600,
      "Қ": 601,
      "қ": 602,
      "ң": 603,
      "ү": 604,
      "ұ": 605,
      "ҳ": 606,
      "Ҷ": 607,
      "ҷ": 608,
      "Ӏ": 609,
      "ӓ": 610,
      "ӕ": 611,
      "Ә": 612,
      "ә": 613,
      "ӛ": 614,
      "ӝ": 615,
      "ӟ": 616,
      "ӣ": 617,
      "ӧ": 618,
      "ө": 619,
      "ӫ": 620,
      "ӱ": 621,
      "ӵ": 622,
      "ӹ": 623,
      "Ա": 624,
      "Բ": 625,
      "Գ": 626,
      "Ե": 627,
      "Է": 628,
      "Լ": 629,
      "Կ": 630,
      "Հ": 631,
      "Ղ": 632,
      "Մ": 633,
      "Ո": 634,
      "Պ": 635,
      "Ս": 636,
      "Վ": 637,
      "Տ": 638,
      "Ւ": 639,
      "Փ": 640,
      "ա": 641,
      "բ": 642,
      "գ": 643,
      "դ": 644,
      "ե": 645,
      "զ": 646,
      "է": 647,
      "ը": 648,
      "թ": 649,
      "ի": 650,
      "խ": 651,
      "կ": 652,
      "հ": 653,
      "ձ": 654,
      "ղ": 655,
      "ճ": 656,
      "մ": 657,
      "յ": 658,
      "ն": 659,
      "շ": 660,
      "ո": 661,
      "չ": 662,
      "պ": 663,
      "ջ": 664,
      "ռ": 665,
      "ս": 666,
      "վ": 667,
      "տ": 668,
      "ր": 669,
      "ց": 670,
      "ւ": 671,
      "փ": 672,
      "ք": 673,
      "օ": 674,
      "ֆ": 675,
      "և": 676,
      "։": 677,
      "֍": 678,
      "֎": 679,
      "֏": 680,
      "֤": 681,
      "֫": 682,
      "ְ": 683,
      "ֱ": 684,
      "ֲ": 685,
      "ֳ": 686,
      "ִ": 687,
      "ֵ": 688,
      "ֶ": 689,
      "ַ": 690,
      "ָ": 691,
      "ֹ": 692,
      "ּ": 693,
      "ֿ": 694,
      "ׁ": 695,
      "ׂ": 696,
      "א": 697,
      "ב": 698,
      "ג": 699,
      "ד": 700,
      "ה": 701,
      "ו": 702,
      "ז": 703,
      "ח": 704,
      "ט": 705,
      "י": 706,
      "ך": 707,
      "כ": 708,
      "ל": 709,
      "ם": 710,
      "מ": 711,
      "ן": 712,
      "נ": 713,
      "ס": 714,
      "ע": 715,
      "ף": 716,
      "פ": 717,
      "ץ": 718,
      "צ": 719,
      "ק": 720,
      "ר": 721,
      "ש": 722,
      "ת": 723,
      "װ": 724,
      "ױ": 725,
      "ײ": 726,
      "׳": 727,
      "״": 728,
      "،": 729,
      "؟": 730,
      "ء": 731,
      "آ": 732,
      "أ": 733,
      "إ": 734,
      "ئ": 735,
      "ا": 736,
      "ب": 737,
      "ة": 738,
      "ت": 739,
      "ث": 740,
      "ج": 741,
      "ح": 742,
      "خ": 743,
      "د": 744,
      "ذ": 745,
      "ر": 746,
      "ز": 747,
      "س": 748,
      "ش": 749,
      "ص": 750,
      "ض": 751,
      "ط": 752,
      "ظ": 753,
      "ع": 754,
      "غ": 755,
      "ـ": 756,
      "ف": 757,
      "ق": 758,
      "ك": 759,
      "ل": 760,
      "م": 761,
      "ن": 762,
      "ه": 763,
      "و": 764,
      "ى": 765,
      "ي": 766,
      "ً": 767,
      "ٍ": 768,
      "َ": 769,
      "ُ": 770,
      "ِ": 771,
      "ّ": 772,
      "ْ": 773,
      "ٰ": 774,
      "پ": 775,
      "ځ": 776,
      "چ": 777,
      "ڌ": 778,
      "ڠ": 779,
      "ک": 780,
      "گ": 781,
      "ھ": 782,
      "ہ": 783,
      "ی": 784,
      "ێ": 785,
      "۔": 786,
      "ۖ": 787,
      "۝": 788,
      "۞": 789,
      "ܐ": 790,
      "ܒ": 791,
      "ܓ": 792,
      "ܕ": 793,
      "ܘ": 794,
      "ܝ": 795,
      "ܟ": 796,
      "ܠ": 797,
      "ܡ": 798,
      "ܢ": 799,
      "ܥ": 800,
      "ܦ": 801,
      "ܪ": 802,
      "ܫ": 803,
      "ܬ": 804,
      "ܳ": 805,
      "ܵ": 806,
      "ܸ": 807,
      "ܹ": 808,
      "ܺ": 809,
      "ܿ": 810,
      "݁": 811,
      "݂": 812,
      "މ": 813,
      "ލ": 814,
      "ާ": 815,
      "ެ": 816,
      "ँ": 817,
      "ं": 818,
      "अ": 819,
      "आ": 820,
      "उ": 821,
      "ए": 822,
      "क": 823,
      "ख": 824,
      "ग": 825,
      "घ": 826,
      "ङ": 827,
      "च": 828,
      "ज": 829,
      "ञ": 830,
      "ट": 831,
      "ठ": 832,
      "ड": 833,
      "ण": 834,
      "त": 835,
      "थ": 836,
      "द": 837,
      "ध": 838,
      "न": 839,
      "प": 840,
      "ब": 841,
      "भ": 842,
      "म": 843,
      "य": 844,
      "र": 845,
      "ल": 846,
      "व": 847,
      "श": 848,
      "ष": 849,
      "स": 850,
      "ह": 851,
      "़": 852,
      "ा": 853,
      "ि": 854,
      "ी": 855,
      "ु": 856,
      "ू": 857,
      "ृ": 858,
      "े": 859,
      "ै": 860,
      "ो": 861,
      "्": 862,
      "ॐ": 863,
      "।": 864,
      "॥": 865,
      "ং": 866,
      "ঃ": 867,
      "অ": 868,
      "ই": 869,
      "উ": 870,
      "ঊ": 871,
      "ঋ": 872,
      "এ": 873,
      "ক": 874,
      "খ": 875,
      "গ": 876,
      "ঙ": 877,
      "জ": 878,
      "ট": 879,
      "ড": 880,
      "ঢ": 881,
      "ণ": 882,
      "ত": 883,
      "দ": 884,
      "ধ": 885,
      "ন": 886,
      "প": 887,
      "ব": 888,
      "ম": 889,
      "য": 890,
      "র": 891,
      "ল": 892,
      "শ": 893,
      "ষ": 894,
      "স": 895,
      "হ": 896,
      "়": 897,
      "া": 898,
      "ি": 899,
      "ী": 900,
      "ু": 901,
      "ে": 902,
      "ো": 903,
      "্": 904,
      "ৎ": 905,
      "১": 906,
      "৩": 907,
      "৪": 908,
      "৫": 909,
      "৭": 910,
      "ਅ": 911,
      "ਈ": 912,
      "ਖ": 913,
      "ਗ": 914,
      "ਚ": 915,
      "ਜ": 916,
      "ਝ": 917,
      "ਤ": 918,
      "ਦ": 919,
      "ਧ": 920,
      "ਨ": 921,
      "ਪ": 922,
      "ਬ": 923,
      "ਮ": 924,
      "ਰ": 925,
      "ਲ": 926,
      "ਸ": 927,
      "ਾ": 928,
      "ਿ": 929,
      "ੀ": 930,
      "ੁ": 931,
      "ੋ": 932,
      "੍": 933,
      "੧": 934,
      "੭": 935,
      "ੰ": 936,
      "ੴ": 937,
      "અ": 938,
      "આ": 939,
      "ઉ": 940,
      "ક": 941,
      "ગ": 942,
      "ચ": 943,
      "છ": 944,
      "જ": 945,
      "ણ": 946,
      "ત": 947,
      "થ": 948,
      "દ": 949,
      "ન": 950,
      "પ": 951,
      "ફ": 952,
      "ભ": 953,
      "મ": 954,
      "ય": 955,
      "ર": 956,
      "લ": 957,
      "ળ": 958,
      "વ": 959,
      "ષ": 960,
      "સ": 961,
      "ા": 962,
      "િ": 963,
      "ી": 964,
      "ુ": 965,
      "ે": 966,
      "ો": 967,
      "્": 968,
      "ଓ": 969,
      "ଡ": 970,
      "ଶ": 971,
      "଼": 972,
      "ା": 973,
      "ି": 974,
      "ஃ": 975,
      "அ": 976,
      "உ": 977,
      "க": 978,
      "ங": 979,
      "ச": 980,
      "ஞ": 981,
      "ண": 982,
      "த": 983,
      "ந": 984,
      "ன": 985,
      "ப": 986,
      "ம": 987,
      "ர": 988,
      "ல": 989,
      "ள": 990,
      "ழ": 991,
      "வ": 992,
      "ா": 993,
      "ி": 994,
      "ீ": 995,
      "ு": 996,
      "ெ": 997,
      "ை": 998,
      "்": 999,
      "ఁ": 1000,
      "ం": 1001,
      "ః": 1002,
      "అ": 1003,
      "ఐ": 1004,
      "ఔ": 1005,
      "క": 1006,
      "జ": 1007,
      "డ": 1008,
      "ణ": 1009,
      "త": 1010,
      "ద": 1011,
      "ప": 1012,
      "బ": 1013,
      "భ": 1014,
      "మ": 1015,
      "య": 1016,
      "ర": 1017,
      "ల": 1018,
      "వ": 1019,
      "హ": 1020,
      "ా": 1021,
      "ి": 1022,
      "ు": 1023,
      "్": 1024,
      "ಂ": 1025,
      "ಅ": 1026,
      "ಇ": 1027,
      "ಈ": 1028,
      "ಉ": 1029,
      "ಊ": 1030,
      "ಋ": 1031,
      "ಎ": 1032,
      "ಏ": 1033,
      "ಗ": 1034,
      "ಜ": 1035,
      "ದ": 1036,
      "ನ": 1037,
      "ಪ": 1038,
      "ಬ": 1039,
      "ಮ": 1040,
      "ರ": 1041,
      "ಲ": 1042,
      "ಳ": 1043,
      "ವ": 1044,
      "ಸ": 1045,
      "ಹ": 1046,
      "ಾ": 1047,
      "ಿ": 1048,
      "ೀ": 1049,
      "ು": 1050,
      "ೂ": 1051,
      "ೆ": 1052,
      "್": 1053,
      "ೠ": 1054,
      "ത": 1055,
      "ദ": 1056,
      "പ": 1057,
      "മ": 1058,
      "ര": 1059,
      "ല": 1060,
      "വ": 1061,
      "സ": 1062,
      "ാ": 1063,
      "ീ": 1064,
      "ോ": 1065,
      "്": 1066,
      "අ": 1067,
      "ක": 1068,
      "ට": 1069,
      "ත": 1070,
      "ද": 1071,
      "න": 1072,
      "ප": 1073,
      "ම": 1074,
      "ඹ": 1075,
      "ය": 1076,
      "ර": 1077,
      "ල": 1078,
      "ව": 1079,
      "ස": 1080,
      "ළ": 1081,
      "්": 1082,
      "ා": 1083,
      "ි": 1084,
      "ු": 1085,
      "ෙ": 1086,
      "ේ": 1087,
      "ො": 1088,
      "෴": 1089,
      "ก": 1090,
      "ข": 1091,
      "ฃ": 1092,
      "ค": 1093,
      "ฅ": 1094,
      "ง": 1095,
      "จ": 1096,
      "ฉ": 1097,
      "ช": 1098,
      "ซ": 1099,
      "ฌ": 1100,
      "ญ": 1101,
      "ฏ": 1102,
      "ฒ": 1103,
      "ณ": 1104,
      "ด": 1105,
      "ต": 1106,
      "ถ": 1107,
      "ท": 1108,
      "ธ": 1109,
      "น": 1110,
      "บ": 1111,
      "ป": 1112,
      "ผ": 1113,
      "ฝ": 1114,
      "พ": 1115,
      "ฟ": 1116,
      "ภ": 1117,
      "ม": 1118,
      "ย": 1119,
      "ร": 1120,
      "ฤ": 1121,
      "ล": 1122,
      "ฦ": 1123,
      "ว": 1124,
      "ศ": 1125,
      "ษ": 1126,
      "ส": 1127,
      "ห": 1128,
      "ฬ": 1129,
      "อ": 1130,
      "ฮ": 1131,
      "ฯ": 1132,
      "ะ": 1133,
      "ั": 1134,
      "า": 1135,
      "ำ": 1136,
      "ิ": 1137,
      "ี": 1138,
      "ึ": 1139,
      "ื": 1140,
      "ุ": 1141,
      "ู": 1142,
      "ฺ": 1143,
      "฿": 1144,
      "เ": 1145,
      "แ": 1146,
      "โ": 1147,
      "ใ": 1148,
      "ไ": 1149,
      "ๅ": 1150,
      "ๆ": 1151,
      "็": 1152,
      "่": 1153,
      "้": 1154,
      "์": 1155,
      "ํ": 1156,
      "๎": 1157,
      "๏": 1158,
      "๗": 1159,
      "๚": 1160,
      "๛": 1161,
      "ງ": 1162,
      "ຊ": 1163,
      "ດ": 1164,
      "ຕ": 1165,
      "ທ": 1166,
      "ນ": 1167,
      "ປ": 1168,
      "ມ": 1169,
      "ລ": 1170,
      "ວ": 1171,
      "ສ": 1172,
      "ອ": 1173,
      "ະ": 1174,
      "ັ": 1175,
      "າ": 1176,
      "ິ": 1177,
      "ື": 1178,
      "ົ": 1179,
      "ເ": 1180,
      "ໄ": 1181,
      "་": 1182,
      "།": 1183,
      "ག": 1184,
      "ང": 1185,
      "ཆ": 1186,
      "པ": 1187,
      "ཙ": 1188,
      "ས": 1189,
      "ེ": 1190,
      "ོ": 1191,
      "က": 1192,
      "ခ": 1193,
      "ပ": 1194,
      "မ": 1195,
      "ါ": 1196,
      "ာ": 1197,
      "ေ": 1198,
      "ဳ": 1199,
      "္": 1200,
      "်": 1201,
      "၏": 1202,
      "ၡ": 1203,
      "ა": 1204,
      "ბ": 1205,
      "გ": 1206,
      "დ": 1207,
      "ე": 1208,
      "ვ": 1209,
      "ზ": 1210,
      "თ": 1211,
      "ი": 1212,
      "კ": 1213,
      "ლ": 1214,
      "მ": 1215,
      "ნ": 1216,
      "ო": 1217,
      "პ": 1218,
      "რ": 1219,
      "ს": 1220,
      "ტ": 1221,
      "უ": 1222,
      "ფ": 1223,
      "ქ": 1224,
      "ღ": 1225,
      "ყ": 1226,
      "შ": 1227,
      "ც": 1228,
      "ძ": 1229,
      "წ": 1230,
      "ხ": 1231,
      "ჯ": 1232,
      "ჳ": 1233,
      "ჴ": 1234,
      "ᄎ": 1235,
      "ᅇ": 1236,
      "ሀ": 1237,
      "ህ": 1238,
      "ሊ": 1239,
      "ላ": 1240,
      "ል": 1241,
      "ሎ": 1242,
      "ሕ": 1243,
      "መ": 1244,
      "ሞ": 1245,
      "ሠ": 1246,
      "ሣ": 1247,
      "ሪ": 1248,
      "ራ": 1249,
      "ር": 1250,
      "ሮ": 1251,
      "ሲ": 1252,
      "ስ": 1253,
      "ቁ": 1254,
      "በ": 1255,
      "ቡ": 1256,
      "ባ": 1257,
      "ቤ": 1258,
      "ብ": 1259,
      "ተ": 1260,
      "ታ": 1261,
      "ት": 1262,
      "ቶ": 1263,
      "ኀ": 1264,
      "ኈ": 1265,
      "ኋ": 1266,
      "ና": 1267,
      "ን": 1268,
      "ኢ": 1269,
      "ኣ": 1270,
      "ኤ": 1271,
      "እ": 1272,
      "ከ": 1273,
      "ኬ": 1274,
      "ክ": 1275,
      "ኰ": 1276,
      "ኸ": 1277,
      "ዀ": 1278,
      "ወ": 1279,
      "ዊ": 1280,
      "ዓ": 1281,
      "ዘ": 1282,
      "የ": 1283,
      "ያ": 1284,
      "ይ": 1285,
      "ዮ": 1286,
      "ደ": 1287,
      "ዲ": 1288,
      "ዴ": 1289,
      "ገ": 1290,
      "ጥ": 1291,
      "ጨ": 1292,
      "ጰ": 1293,
      "ጵ": 1294,
      "ጸ": 1295,
      "ፀ": 1296,
      "ፌ": 1297,
      "ፎ": 1298,
      "ፐ": 1299,
      "።": 1300,
      "፭": 1301,
      "፻": 1302,
      "ᐊ": 1303,
      "ᑐ": 1304,
      "ᑕ": 1305,
      "ᑦ": 1306,
      "ᓄ": 1307,
      "ᓇ": 1308,
      "ᓐ": 1309,
      "ᓯ": 1310,
      "ᔪ": 1311,
      "ᔭ": 1312,
      "ᕗ": 1313,
      "ᖃ": 1314,
      "ᖅ": 1315,
      "ᛟ": 1316,
      "ក": 1317,
      "ខ": 1318,
      "ង": 1319,
      "ច": 1320,
      "ជ": 1321,
      "ញ": 1322,
      "ណ": 1323,
      "ត": 1324,
      "ថ": 1325,
      "ទ": 1326,
      "ន": 1327,
      "ប": 1328,
      "ព": 1329,
      "ភ": 1330,
      "ម": 1331,
      "យ": 1332,
      "រ": 1333,
      "ល": 1334,
      "វ": 1335,
      "ស": 1336,
      "ឡ": 1337,
      "អ": 1338,
      "ឥ": 1339,
      "ា": 1340,
      "ិ": 1341,
      "ី": 1342,
      "ុ": 1343,
      "េ": 1344,
      "ំ": 1345,
      "ះ": 1346,
      "៉": 1347,
      "់": 1348,
      "័": 1349,
      "្": 1350,
      "ᬩ": 1351,
      "ᬮ": 1352,
      "ᬶ": 1353,
      "ᮏ": 1354,
      "ᮝ": 1355,
      "ᴂ": 1356,
      "ᴔ": 1357,
      "ᵫ": 1358,
      "ᵺ": 1359,
      "ᵻ": 1360,
      "ḃ": 1361,
      "ḅ": 1362,
      "ḇ": 1363,
      "Ḍ": 1364,
      "ḍ": 1365,
      "ḏ": 1366,
      "ḑ": 1367,
      "ḕ": 1368,
      "ḗ": 1369,
      "ḡ": 1370,
      "ḣ": 1371,
      "Ḥ": 1372,
      "ḥ": 1373,
      "Ḧ": 1374,
      "Ḫ": 1375,
      "ḫ": 1376,
      "ḱ": 1377,
      "Ḳ": 1378,
      "ḳ": 1379,
      "Ḵ": 1380,
      "ḵ": 1381,
      "Ḷ": 1382,
      "ḷ": 1383,
      "ḻ": 1384,
      "ṁ": 1385,
      "ṃ": 1386,
      "ṅ": 1387,
      "ṇ": 1388,
      "ṓ": 1389,
      "ṗ": 1390,
      "Ṛ": 1391,
      "ṛ": 1392,
      "ṟ": 1393,
      "Ṣ": 1394,
      "ṣ": 1395,
      "ṫ": 1396,
      "Ṭ": 1397,
      "ṭ": 1398,
      "ṯ": 1399,
      "ṳ": 1400,
      "ṻ": 1401,
      "Ẅ": 1402,
      "ẅ": 1403,
      "ẍ": 1404,
      "Ẓ": 1405,
      "ẓ": 1406,
      "ẗ": 1407,
      "ẟ": 1408,
      "ạ": 1409,
      "ả": 1410,
      "Ấ": 1411,
      "ấ": 1412,
      "ầ": 1413,
      "ẩ": 1414,
      "ẫ": 1415,
      "ậ": 1416,
      "ắ": 1417,
      "ằ": 1418,
      "ẵ": 1419,
      "ặ": 1420,
      "ẹ": 1421,
      "ẻ": 1422,
      "Ẽ": 1423,
      "ẽ": 1424,
      "ế": 1425,
      "ề": 1426,
      "ể": 1427,
      "ễ": 1428,
      "ệ": 1429,
      "ỉ": 1430,
      "ị": 1431,
      "ọ": 1432,
      "ỏ": 1433,
      "ố": 1434,
      "ồ": 1435,
      "ổ": 1436,
      "ộ": 1437,
      "ớ": 1438,
      "ờ": 1439,
      "ở": 1440,
      "ợ": 1441,
      "ụ": 1442,
      "Ủ": 1443,
      "ủ": 1444,
      "ứ": 1445,
      "ừ": 1446,
      "ử": 1447,
      "ữ": 1448,
      "ự": 1449,
      "ỳ": 1450,
      "ỹ": 1451,
      "Ỻ": 1452,
      "ỻ": 1453,
      "ἀ": 1454,
      "ἁ": 1455,
      "ἄ": 1456,
      "ἅ": 1457,
      "ἆ": 1458,
      "Ἀ": 1459,
      "Ἄ": 1460,
      "Ἅ": 1461,
      "ἐ": 1462,
      "ἑ": 1463,
      "ἔ": 1464,
      "ἕ": 1465,
      "Ἑ": 1466,
      "Ἔ": 1467,
      "Ἕ": 1468,
      "ἠ": 1469,
      "ἡ": 1470,
      "ἤ": 1471,
      "ἥ": 1472,
      "ἦ": 1473,
      "Ἡ": 1474,
      "ἰ": 1475,
      "ἱ": 1476,
      "ἳ": 1477,
      "ἴ": 1478,
      "ἶ": 1479,
      "ἷ": 1480,
      "Ἰ": 1481,
      "Ἱ": 1482,
      "Ἴ": 1483,
      "Ἶ": 1484,
      "ὀ": 1485,
      "ὁ": 1486,
      "ὄ": 1487,
      "ὅ": 1488,
      "Ὀ": 1489,
      "Ὁ": 1490,
      "Ὅ": 1491,
      "ὐ": 1492,
      "ὑ": 1493,
      "ὕ": 1494,
      "ὖ": 1495,
      "Ὑ": 1496,
      "ὠ": 1497,
      "ὡ": 1498,
      "ὤ": 1499,
      "ὥ": 1500,
      "ὰ": 1501,
      "ὴ": 1502,
      "ὶ": 1503,
      "ὸ": 1504,
      "ὼ": 1505,
      "ᾠ": 1506,
      "ᾰ": 1507,
      "ᾴ": 1508,
      "ᾶ": 1509,
      "ᾷ": 1510,
      "᾽": 1511,
      "ῃ": 1512,
      "ῆ": 1513,
      "ῖ": 1514,
      "ῥ": 1515,
      "ῦ": 1516,
      "Ῥ": 1517,
      "ῳ": 1518,
      "ῶ": 1519,
      "ῷ": 1520,
      "‌": 1521,
      "‍": 1522,
      "‎": 1523,
      "‐": 1524,
      "‑": 1525,
      "‒": 1526,
      "–": 1527,
      "—": 1528,
      "―": 1529,
      "‖": 1530,
      "‘": 1531,
      "’": 1532,
      "‚": 1533,
      "“": 1534,
      "”": 1535,
      "„": 1536,
      "†": 1537,
      "‡": 1538,
      "•": 1539,
      "…": 1540,
      "‧": 1541,
      "‰": 1542,
      "′": 1543,
      "″": 1544,
      "‹": 1545,
      "›": 1546,
      "※": 1547,
      "‿": 1548,
      "⁄": 1549,
      "⁅": 1550,
      "⁆": 1551,
      "⁊": 1552,
      "⁙": 1553,
      "⁠": 1554,
      "⁬": 1555,
      "⁰": 1556,
      "⁵": 1557,
      "⁺": 1558,
      "ⁿ": 1559,
      "₁": 1560,
      "₂": 1561,
      "₃": 1562,
      "₇": 1563,
      "₣": 1564,
      "₤": 1565,
      "₧": 1566,
      "₨": 1567,
      "₩": 1568,
      "₪": 1569,
      "€": 1570,
      "₮": 1571,
      "₯": 1572,
      "₱": 1573,
      "₹": 1574,
      "₽": 1575,
      "₾": 1576,
      "⃝": 1577,
      "ℂ": 1578,
      "ℓ": 1579,
      "℔": 1580,
      "№": 1581,
      "℗": 1582,
      "ℚ": 1583,
      "ℝ": 1584,
      "℞": 1585,
      "℡": 1586,
      "™": 1587,
      "ℤ": 1588,
      "℧": 1589,
      "⅓": 1590,
      "⅔": 1591,
      "⅙": 1592,
      "⅛": 1593,
      "⅝": 1594,
      "⅞": 1595,
      "Ⅰ": 1596,
      "Ⅱ": 1597,
      "Ⅴ": 1598,
      "Ⅹ": 1599,
      "Ⅼ": 1600,
      "Ⅽ": 1601,
      "Ⅿ": 1602,
      "ↀ": 1603,
      "ↁ": 1604,
      "ↂ": 1605,
      "ↄ": 1606,
      "ↇ": 1607,
      "ↈ": 1608,
      "←": 1609,
      "→": 1610,
      "↔": 1611,
      "⇌": 1612,
      "⇒": 1613,
      "⇔": 1614,
      "∀": 1615,
      "∂": 1616,
      "∃": 1617,
      "∅": 1618,
      "∆": 1619,
      "∇": 1620,
      "∈": 1621,
      "∉": 1622,
      "∎": 1623,
      "∑": 1624,
      "−": 1625,
      "∗": 1626,
      "∘": 1627,
      "∙": 1628,
      "√": 1629,
      "∝": 1630,
      "∞": 1631,
      "∠": 1632,
      "∧": 1633,
      "∨": 1634,
      "∩": 1635,
      "∪": 1636,
      "∫": 1637,
      "∶": 1638,
      "∼": 1639,
      "∿": 1640,
      "≃": 1641,
      "≅": 1642,
      "≈": 1643,
      "≋": 1644,
      "≠": 1645,
      "≡": 1646,
      "≤": 1647,
      "≥": 1648,
      "≲": 1649,
      "⊂": 1650,
      "⊃": 1651,
      "⊆": 1652,
      "⊇": 1653,
      "⊊": 1654,
      "⊋": 1655,
      "⊏": 1656,
      "⊕": 1657,
      "⊗": 1658,
      "⊙": 1659,
      "⊥": 1660,
      "⊻": 1661,
      "⊼": 1662,
      "⊽": 1663,
      "⋅": 1664,
      "⌀": 1665,
      "⌈": 1666,
      "⌉": 1667,
      "⌊": 1668,
      "⌋": 1669,
      "⌕": 1670,
      "⌜": 1671,
      "⌝": 1672,
      "⌬": 1673,
      "⎓": 1674,
      "⏣": 1675,
      "⑆": 1676,
      "⑇": 1677,
      "⑈": 1678,
      "⑉": 1679,
      "④": 1680,
      "Ⓨ": 1681,
      "┐": 1682,
      "╗": 1683,
      "□": 1684,
      "◌": 1685,
      "☄": 1686,
      "☉": 1687,
      "☎": 1688,
      "☏": 1689,
      "☫": 1690,
      "☺": 1691,
      "♀": 1692,
      "♂": 1693,
      "♄": 1694,
      "♆": 1695,
      "♇": 1696,
      "♈": 1697,
      "♎": 1698,
      "♠": 1699,
      "♣": 1700,
      "♥": 1701,
      "♦": 1702,
      "♭": 1703,
      "♯": 1704,
      "⚥": 1705,
      "⚧": 1706,
      "⚳": 1707,
      "⚴": 1708,
      "⚵": 1709,
      "✆": 1710,
      "⟦": 1711,
      "⟧": 1712,
      "⟨": 1713,
      "⟩": 1714,
      "⟼": 1715,
      "Ⰳ": 1716,
      "Ⰹ": 1717,
      "Ⰺ": 1718,
      "Ⰻ": 1719,
      "Ⱆ": 1720,
      "Ⱏ": 1721,
      "Ⱐ": 1722,
      "Ⱓ": 1723,
      "Ⱔ": 1724,
      "Ⱗ": 1725,
      "Ⱘ": 1726,
      "Ⱙ": 1727,
      "ⰰ": 1728,
      "ⰳ": 1729,
      "ⰻ": 1730,
      "ⰾ": 1731,
      "ⱁ": 1732,
      "ⱌ": 1733,
      "ⴰ": 1734,
      "ⴼ": 1735,
      "ⴽ": 1736,
      "ⵎ": 1737,
      "ⵏ": 1738,
      "ⵓ": 1739,
      "ⵔ": 1740,
      "ⵙ": 1741,
      "ⵛ": 1742,
      "ⵜ": 1743,
      "⸤": 1744,
      "⸥": 1745,
      "⸺": 1746,
      "⸻": 1747,
      "⻌": 1748,
      "。": 1749,
      "〈": 1750,
      "〉": 1751,
      "《": 1752,
      "》": 1753,
      "【": 1754,
      "】": 1755,
      "〜": 1756,
      "〮": 1757,
      "〯": 1758,
      "あ": 1759,
      "い": 1760,
      "う": 1761,
      "え": 1762,
      "お": 1763,
      "か": 1764,
      "が": 1765,
      "き": 1766,
      "ぎ": 1767,
      "く": 1768,
      "ぐ": 1769,
      "け": 1770,
      "げ": 1771,
      "さ": 1772,
      "し": 1773,
      "じ": 1774,
      "す": 1775,
      "せ": 1776,
      "た": 1777,
      "だ": 1778,
      "ち": 1779,
      "ぢ": 1780,
      "っ": 1781,
      "つ": 1782,
      "づ": 1783,
      "て": 1784,
      "と": 1785,
      "ど": 1786,
      "な": 1787,
      "に": 1788,
      "ぬ": 1789,
      "の": 1790,
      "は": 1791,
      "ひ": 1792,
      "へ": 1793,
      "ほ": 1794,
      "ま": 1795,
      "み": 1796,
      "む": 1797,
      "ゃ": 1798,
      "ゅ": 1799,
      "ょ": 1800,
      "よ": 1801,
      "り": 1802,
      "る": 1803,
      "ろ": 1804,
      "ゎ": 1805,
      "わ": 1806,
      "ゐ": 1807,
      "ゑ": 1808,
      "を": 1809,
      "ん": 1810,
      "ゔ": 1811,
      "゚": 1812,
      "ゝ": 1813,
      "ゞ": 1814,
      "ァ": 1815,
      "ア": 1816,
      "ィ": 1817,
      "イ": 1818,
      "ゥ": 1819,
      "ウ": 1820,
      "ェ": 1821,
      "エ": 1822,
      "ォ": 1823,
      "オ": 1824,
      "カ": 1825,
      "キ": 1826,
      "ギ": 1827,
      "ク": 1828,
      "グ": 1829,
      "ケ": 1830,
      "コ": 1831,
      "ゴ": 1832,
      "サ": 1833,
      "シ": 1834,
      "ジ": 1835,
      "ス": 1836,
      "ズ": 1837,
      "セ": 1838,
      "ソ": 1839,
      "タ": 1840,
      "ダ": 1841,
      "チ": 1842,
      "ッ": 1843,
      "ツ": 1844,
      "テ": 1845,
      "デ": 1846,
      "ト": 1847,
      "ド": 1848,
      "ナ": 1849,
      "ニ": 1850,
      "ヌ": 1851,
      "ネ": 1852,
      "ハ": 1853,
      "バ": 1854,
      "パ": 1855,
      "ヒ": 1856,
      "ビ": 1857,
      "ピ": 1858,
      "フ": 1859,
      "ブ": 1860,
      "プ": 1861,
      "ベ": 1862,
      "ペ": 1863,
      "ホ": 1864,
      "ボ": 1865,
      "ポ": 1866,
      "マ": 1867,
      "ミ": 1868,
      "ム": 1869,
      "メ": 1870,
      "モ": 1871,
      "ャ": 1872,
      "ヤ": 1873,
      "ュ": 1874,
      "ョ": 1875,
      "ヨ": 1876,
      "ラ": 1877,
      "リ": 1878,
      "ル": 1879,
      "レ": 1880,
      "ロ": 1881,
      "ワ": 1882,
      "ヲ": 1883,
      "ン": 1884,
      "ヴ": 1885,
      "ヶ": 1886,
      "・": 1887,
      "ー": 1888,
      "ヽ": 1889,
      "ヾ": 1890,
      "ㄖ": 1891,
      "ㄱ": 1892,
      "ㄲ": 1893,
      "ㄷ": 1894,
      "ㄸ": 1895,
      "ㅂ": 1896,
      "ㅃ": 1897,
      "ㅆ": 1898,
      "ㅇ": 1899,
      "ㅈ": 1900,
      "ㅉ": 1901,
      "ㅊ": 1902,
      "ㅐ": 1903,
      "ㅒ": 1904,
      "ㅔ": 1905,
      "ㅖ": 1906,
      "ㅚ": 1907,
      "ㅟ": 1908,
      "ㅣ": 1909,
      "ㆅ": 1910,
      "ㇷ": 1911,
      "㍴": 1912,
      "㎕": 1913,
      "㎖": 1914,
      "㎗": 1915,
      "㎘": 1916,
      "㎢": 1917,
      "㏔": 1918,
      "㓾": 1919,
      "一": 1920,
      "万": 1921,
      "三": 1922,
      "上": 1923,
      "下": 1924,
      "不": 1925,
      "世": 1926,
      "丘": 1927,
      "业": 1928,
      "东": 1929,
      "丝": 1930,
      "両": 1931,
      "个": 1932,
      "中": 1933,
      "丰": 1934,
      "丹": 1935,
      "为": 1936,
      "主": 1937,
      "么": 1938,
      "义": 1939,
      "之": 1940,
      "乐": 1941,
      "乗": 1942,
      "九": 1943,
      "乞": 1944,
      "乡": 1945,
      "书": 1946,
      "乳": 1947,
      "了": 1948,
      "事": 1949,
      "二": 1950,
      "于": 1951,
      "云": 1952,
      "互": 1953,
      "亓": 1954,
      "五": 1955,
      "井": 1956,
      "些": 1957,
      "交": 1958,
      "京": 1959,
      "亭": 1960,
      "亲": 1961,
      "人": 1962,
      "亻": 1963,
      "什": 1964,
      "仁": 1965,
      "今": 1966,
      "介": 1967,
      "仔": 1968,
      "他": 1969,
      "代": 1970,
      "令": 1971,
      "以": 1972,
      "仪": 1973,
      "们": 1974,
      "仲": 1975,
      "伊": 1976,
      "伐": 1977,
      "休": 1978,
      "会": 1979,
      "传": 1980,
      "伯": 1981,
      "佇": 1982,
      "住": 1983,
      "佐": 1984,
      "体": 1985,
      "何": 1986,
      "余": 1987,
      "佛": 1988,
      "作": 1989,
      "你": 1990,
      "使": 1991,
      "來": 1992,
      "例": 1993,
      "侍": 1994,
      "侖": 1995,
      "依": 1996,
      "侠": 1997,
      "侨": 1998,
      "侬": 1999,
      "侮": 2000,
      "侯": 2001,
      "俄": 2002,
      "保": 2003,
      "信": 2004,
      "俭": 2005,
      "修": 2006,
      "俳": 2007,
      "俵": 2008,
      "們": 2009,
      "倭": 2010,
      "偕": 2011,
      "健": 2012,
      "偿": 2013,
      "傑": 2014,
      "傘": 2015,
      "備": 2016,
      "傳": 2017,
      "債": 2018,
      "像": 2019,
      "僧": 2020,
      "儀": 2021,
      "儂": 2022,
      "儉": 2023,
      "儒": 2024,
      "優": 2025,
      "儿": 2026,
      "元": 2027,
      "兆": 2028,
      "先": 2029,
      "光": 2030,
      "克": 2031,
      "兒": 2032,
      "入": 2033,
      "內": 2034,
      "全": 2035,
      "兩": 2036,
      "八": 2037,
      "公": 2038,
      "六": 2039,
      "兮": 2040,
      "兰": 2041,
      "共": 2042,
      "关": 2043,
      "兵": 2044,
      "典": 2045,
      "兼": 2046,
      "内": 2047,
      "军": 2048,
      "农": 2049,
      "冤": 2050,
      "冫": 2051,
      "冶": 2052,
      "准": 2053,
      "出": 2054,
      "刀": 2055,
      "分": 2056,
      "切": 2057,
      "列": 2058,
      "刘": 2059,
      "判": 2060,
      "別": 2061,
      "利": 2062,
      "别": 2063,
      "到": 2064,
      "制": 2065,
      "券": 2066,
      "刺": 2067,
      "刻": 2068,
      "削": 2069,
      "前": 2070,
      "剎": 2071,
      "剑": 2072,
      "剣": 2073,
      "創": 2074,
      "劇": 2075,
      "劉": 2076,
      "劍": 2077,
      "力": 2078,
      "办": 2079,
      "功": 2080,
      "务": 2081,
      "动": 2082,
      "勇": 2083,
      "務": 2084,
      "勢": 2085,
      "勿": 2086,
      "包": 2087,
      "匆": 2088,
      "匕": 2089,
      "化": 2090,
      "北": 2091,
      "匪": 2092,
      "区": 2093,
      "區": 2094,
      "十": 2095,
      "千": 2096,
      "升": 2097,
      "半": 2098,
      "华": 2099,
      "協": 2100,
      "南": 2101,
      "博": 2102,
      "卜": 2103,
      "占": 2104,
      "卦": 2105,
      "卫": 2106,
      "印": 2107,
      "卿": 2108,
      "厅": 2109,
      "厘": 2110,
      "原": 2111,
      "去": 2112,
      "县": 2113,
      "参": 2114,
      "參": 2115,
      "又": 2116,
      "及": 2117,
      "友": 2118,
      "双": 2119,
      "反": 2120,
      "发": 2121,
      "叔": 2122,
      "取": 2123,
      "受": 2124,
      "叠": 2125,
      "口": 2126,
      "古": 2127,
      "句": 2128,
      "叭": 2129,
      "可": 2130,
      "台": 2131,
      "史": 2132,
      "右": 2133,
      "叶": 2134,
      "号": 2135,
      "司": 2136,
      "合": 2137,
      "吉": 2138,
      "同": 2139,
      "名": 2140,
      "后": 2141,
      "向": 2142,
      "吒": 2143,
      "吗": 2144,
      "君": 2145,
      "含": 2146,
      "吳": 2147,
      "吴": 2148,
      "吾": 2149,
      "员": 2150,
      "呣": 2151,
      "周": 2152,
      "味": 2153,
      "和": 2154,
      "咗": 2155,
      "咧": 2156,
      "咱": 2157,
      "品": 2158,
      "哟": 2159,
      "哥": 2160,
      "唐": 2161,
      "唔": 2162,
      "唯": 2163,
      "唵": 2164,
      "商": 2165,
      "問": 2166,
      "啲": 2167,
      "善": 2168,
      "嗎": 2169,
      "嘅": 2170,
      "嘉": 2171,
      "嘛": 2172,
      "噌": 2173,
      "器": 2174,
      "嚴": 2175,
      "四": 2176,
      "回": 2177,
      "园": 2178,
      "围": 2179,
      "国": 2180,
      "國": 2181,
      "園": 2182,
      "圓": 2183,
      "圕": 2184,
      "圖": 2185,
      "土": 2186,
      "圣": 2187,
      "圧": 2188,
      "在": 2189,
      "地": 2190,
      "圳": 2191,
      "坂": 2192,
      "坐": 2193,
      "坑": 2194,
      "块": 2195,
      "坛": 2196,
      "型": 2197,
      "垣": 2198,
      "城": 2199,
      "域": 2200,
      "埠": 2201,
      "基": 2202,
      "埼": 2203,
      "堂": 2204,
      "堡": 2205,
      "堤": 2206,
      "報": 2207,
      "場": 2208,
      "塊": 2209,
      "塗": 2210,
      "塞": 2211,
      "填": 2212,
      "境": 2213,
      "增": 2214,
      "壇": 2215,
      "壓": 2216,
      "壤": 2217,
      "士": 2218,
      "声": 2219,
      "壶": 2220,
      "壺": 2221,
      "处": 2222,
      "复": 2223,
      "夏": 2224,
      "外": 2225,
      "多": 2226,
      "大": 2227,
      "天": 2228,
      "太": 2229,
      "夫": 2230,
      "央": 2231,
      "失": 2232,
      "头": 2233,
      "夷": 2234,
      "奈": 2235,
      "奉": 2236,
      "奘": 2237,
      "女": 2238,
      "她": 2239,
      "好": 2240,
      "如": 2241,
      "妈": 2242,
      "妳": 2243,
      "妹": 2244,
      "始": 2245,
      "姑": 2246,
      "姓": 2247,
      "委": 2248,
      "姚": 2249,
      "姻": 2250,
      "姿": 2251,
      "娘": 2252,
      "婚": 2253,
      "媛": 2254,
      "子": 2255,
      "孔": 2256,
      "字": 2257,
      "孟": 2258,
      "学": 2259,
      "孫": 2260,
      "學": 2261,
      "宁": 2262,
      "它": 2263,
      "宇": 2264,
      "守": 2265,
      "安": 2266,
      "宋": 2267,
      "完": 2268,
      "宏": 2269,
      "宗": 2270,
      "官": 2271,
      "定": 2272,
      "实": 2273,
      "客": 2274,
      "宣": 2275,
      "宮": 2276,
      "家": 2277,
      "宿": 2278,
      "密": 2279,
      "富": 2280,
      "寒": 2281,
      "察": 2282,
      "寧": 2283,
      "寮": 2284,
      "寶": 2285,
      "寺": 2286,
      "封": 2287,
      "専": 2288,
      "射": 2289,
      "将": 2290,
      "將": 2291,
      "尊": 2292,
      "小": 2293,
      "少": 2294,
      "尔": 2295,
      "尺": 2296,
      "尼": 2297,
      "局": 2298,
      "居": 2299,
      "屋": 2300,
      "層": 2301,
      "山": 2302,
      "岁": 2303,
      "岐": 2304,
      "岛": 2305,
      "岡": 2306,
      "岸": 2307,
      "峠": 2308,
      "峰": 2309,
      "島": 2310,
      "崗": 2311,
      "崩": 2312,
      "川": 2313,
      "州": 2314,
      "巣": 2315,
      "工": 2316,
      "左": 2317,
      "己": 2318,
      "巴": 2319,
      "市": 2320,
      "布": 2321,
      "帅": 2322,
      "师": 2323,
      "帖": 2324,
      "帝": 2325,
      "帥": 2326,
      "師": 2327,
      "帰": 2328,
      "常": 2329,
      "幕": 2330,
      "幣": 2331,
      "平": 2332,
      "年": 2333,
      "并": 2334,
      "幼": 2335,
      "广": 2336,
      "庁": 2337,
      "広": 2338,
      "庄": 2339,
      "庆": 2340,
      "库": 2341,
      "店": 2342,
      "庙": 2343,
      "府": 2344,
      "度": 2345,
      "康": 2346,
      "廃": 2347,
      "廉": 2348,
      "廊": 2349,
      "廣": 2350,
      "廳": 2351,
      "建": 2352,
      "弁": 2353,
      "弄": 2354,
      "弗": 2355,
      "弘": 2356,
      "张": 2357,
      "弦": 2358,
      "張": 2359,
      "强": 2360,
      "录": 2361,
      "彙": 2362,
      "形": 2363,
      "彤": 2364,
      "彼": 2365,
      "很": 2366,
      "律": 2367,
      "徒": 2368,
      "從": 2369,
      "御": 2370,
      "復": 2371,
      "徳": 2372,
      "徵": 2373,
      "德": 2374,
      "徽": 2375,
      "心": 2376,
      "志": 2377,
      "忙": 2378,
      "态": 2379,
      "性": 2380,
      "怪": 2381,
      "总": 2382,
      "恐": 2383,
      "恕": 2384,
      "恥": 2385,
      "恩": 2386,
      "恭": 2387,
      "息": 2388,
      "悉": 2389,
      "悔": 2390,
      "悟": 2391,
      "您": 2392,
      "情": 2393,
      "想": 2394,
      "愛": 2395,
      "慈": 2396,
      "慶": 2397,
      "憂": 2398,
      "憨": 2399,
      "應": 2400,
      "懷": 2401,
      "懸": 2402,
      "成": 2403,
      "我": 2404,
      "战": 2405,
      "戦": 2406,
      "戸": 2407,
      "房": 2408,
      "所": 2409,
      "扁": 2410,
      "手": 2411,
      "才": 2412,
      "扒": 2413,
      "扶": 2414,
      "技": 2415,
      "折": 2416,
      "护": 2417,
      "报": 2418,
      "抱": 2419,
      "拉": 2420,
      "拓": 2421,
      "招": 2422,
      "拜": 2423,
      "拝": 2424,
      "拼": 2425,
      "拿": 2426,
      "指": 2427,
      "按": 2428,
      "挑": 2429,
      "振": 2430,
      "授": 2431,
      "推": 2432,
      "提": 2433,
      "揚": 2434,
      "換": 2435,
      "摩": 2436,
      "撓": 2437,
      "支": 2438,
      "改": 2439,
      "政": 2440,
      "敏": 2441,
      "教": 2442,
      "敬": 2443,
      "敷": 2444,
      "文": 2445,
      "斗": 2446,
      "斤": 2447,
      "斯": 2448,
      "新": 2449,
      "方": 2450,
      "旁": 2451,
      "旅": 2452,
      "族": 2453,
      "日": 2454,
      "旭": 2455,
      "昌": 2456,
      "明": 2457,
      "星": 2458,
      "春": 2459,
      "昨": 2460,
      "是": 2461,
      "時": 2462,
      "晉": 2463,
      "晋": 2464,
      "晖": 2465,
      "晚": 2466,
      "普": 2467,
      "晶": 2468,
      "智": 2469,
      "暂": 2470,
      "曉": 2471,
      "曲": 2472,
      "書": 2473,
      "曹": 2474,
      "曾": 2475,
      "替": 2476,
      "最": 2477,
      "會": 2478,
      "月": 2479,
      "有": 2480,
      "服": 2481,
      "朗": 2482,
      "朝": 2483,
      "期": 2484,
      "木": 2485,
      "未": 2486,
      "本": 2487,
      "朱": 2488,
      "朴": 2489,
      "机": 2490,
      "李": 2491,
      "村": 2492,
      "杜": 2493,
      "条": 2494,
      "来": 2495,
      "杨": 2496,
      "杭": 2497,
      "東": 2498,
      "松": 2499,
      "林": 2500,
      "枝": 2501,
      "架": 2502,
      "查": 2503,
      "柳": 2504,
      "柴": 2505,
      "栃": 2506,
      "校": 2507,
      "根": 2508,
      "格": 2509,
      "桂": 2510,
      "案": 2511,
      "梁": 2512,
      "梅": 2513,
      "梆": 2514,
      "梦": 2515,
      "梨": 2516,
      "梵": 2517,
      "检": 2518,
      "棍": 2519,
      "棚": 2520,
      "森": 2521,
      "棲": 2522,
      "椒": 2523,
      "検": 2524,
      "楊": 2525,
      "楚": 2526,
      "業": 2527,
      "極": 2528,
      "楷": 2529,
      "楼": 2530,
      "楽": 2531,
      "樂": 2532,
      "樓": 2533,
      "標": 2534,
      "機": 2535,
      "檬": 2536,
      "檸": 2537,
      "次": 2538,
      "欢": 2539,
      "欣": 2540,
      "歌": 2541,
      "正": 2542,
      "此": 2543,
      "武": 2544,
      "歲": 2545,
      "殷": 2546,
      "殿": 2547,
      "毋": 2548,
      "母": 2549,
      "每": 2550,
      "比": 2551,
      "毘": 2552,
      "毛": 2553,
      "氏": 2554,
      "民": 2555,
      "气": 2556,
      "氣": 2557,
      "水": 2558,
      "氵": 2559,
      "汁": 2560,
      "汇": 2561,
      "汉": 2562,
      "汝": 2563,
      "江": 2564,
      "沁": 2565,
      "沃": 2566,
      "沒": 2567,
      "沓": 2568,
      "沪": 2569,
      "河": 2570,
      "治": 2571,
      "泉": 2572,
      "法": 2573,
      "波": 2574,
      "泥": 2575,
      "泰": 2576,
      "泽": 2577,
      "洋": 2578,
      "洛": 2579,
      "洞": 2580,
      "津": 2581,
      "洪": 2582,
      "洲": 2583,
      "派": 2584,
      "流": 2585,
      "浣": 2586,
      "浦": 2587,
      "海": 2588,
      "消": 2589,
      "淞": 2590,
      "淨": 2591,
      "深": 2592,
      "淵": 2593,
      "添": 2594,
      "清": 2595,
      "済": 2596,
      "渝": 2597,
      "渤": 2598,
      "温": 2599,
      "港": 2600,
      "湖": 2601,
      "湘": 2602,
      "湾": 2603,
      "準": 2604,
      "溪": 2605,
      "溫": 2606,
      "漢": 2607,
      "漫": 2608,
      "潔": 2609,
      "潘": 2610,
      "潛": 2611,
      "潤": 2612,
      "澄": 2613,
      "澤": 2614,
      "澳": 2615,
      "濟": 2616,
      "火": 2617,
      "灭": 2618,
      "点": 2619,
      "為": 2620,
      "焉": 2621,
      "焚": 2622,
      "無": 2623,
      "然": 2624,
      "熊": 2625,
      "燒": 2626,
      "燕": 2627,
      "爆": 2628,
      "爵": 2629,
      "父": 2630,
      "版": 2631,
      "牌": 2632,
      "牙": 2633,
      "牛": 2634,
      "牧": 2635,
      "物": 2636,
      "特": 2637,
      "独": 2638,
      "猫": 2639,
      "玄": 2640,
      "玉": 2641,
      "王": 2642,
      "玛": 2643,
      "现": 2644,
      "珊": 2645,
      "珍": 2646,
      "珠": 2647,
      "現": 2648,
      "理": 2649,
      "琳": 2650,
      "琴": 2651,
      "琵": 2652,
      "琶": 2653,
      "瑚": 2654,
      "瑤": 2655,
      "瓦": 2656,
      "瓩": 2657,
      "生": 2658,
      "産": 2659,
      "用": 2660,
      "田": 2661,
      "由": 2662,
      "甲": 2663,
      "电": 2664,
      "画": 2665,
      "界": 2666,
      "略": 2667,
      "番": 2668,
      "異": 2669,
      "發": 2670,
      "白": 2671,
      "百": 2672,
      "的": 2673,
      "皇": 2674,
      "皮": 2675,
      "益": 2676,
      "監": 2677,
      "目": 2678,
      "盲": 2679,
      "直": 2680,
      "相": 2681,
      "省": 2682,
      "県": 2683,
      "眞": 2684,
      "真": 2685,
      "眾": 2686,
      "着": 2687,
      "督": 2688,
      "瞽": 2689,
      "知": 2690,
      "矩": 2691,
      "短": 2692,
      "石": 2693,
      "矿": 2694,
      "硫": 2695,
      "碑": 2696,
      "碗": 2697,
      "礻": 2698,
      "礼": 2699,
      "社": 2700,
      "祀": 2701,
      "祈": 2702,
      "祐": 2703,
      "神": 2704,
      "祥": 2705,
      "祩": 2706,
      "祭": 2707,
      "祺": 2708,
      "禅": 2709,
      "禊": 2710,
      "福": 2711,
      "禪": 2712,
      "禮": 2713,
      "禱": 2714,
      "禺": 2715,
      "秀": 2716,
      "私": 2717,
      "秉": 2718,
      "秋": 2719,
      "秦": 2720,
      "程": 2721,
      "種": 2722,
      "穆": 2723,
      "空": 2724,
      "立": 2725,
      "竜": 2726,
      "章": 2727,
      "竹": 2728,
      "笛": 2729,
      "笠": 2730,
      "符": 2731,
      "第": 2732,
      "筆": 2733,
      "等": 2734,
      "筒": 2735,
      "策": 2736,
      "箇": 2737,
      "管": 2738,
      "箱": 2739,
      "節": 2740,
      "篆": 2741,
      "篪": 2742,
      "簫": 2743,
      "籲": 2744,
      "米": 2745,
      "粉": 2746,
      "粤": 2747,
      "粥": 2748,
      "粵": 2749,
      "精": 2750,
      "糎": 2751,
      "糜": 2752,
      "系": 2753,
      "紅": 2754,
      "紇": 2755,
      "納": 2756,
      "紐": 2757,
      "紙": 2758,
      "紧": 2759,
      "累": 2760,
      "紹": 2761,
      "組": 2762,
      "経": 2763,
      "結": 2764,
      "統": 2765,
      "綏": 2766,
      "經": 2767,
      "続": 2768,
      "緊": 2769,
      "総": 2770,
      "緑": 2771,
      "縁": 2772,
      "縄": 2773,
      "縣": 2774,
      "總": 2775,
      "繁": 2776,
      "織": 2777,
      "级": 2778,
      "线": 2779,
      "组": 2780,
      "经": 2781,
      "统": 2782,
      "罚": 2783,
      "置": 2784,
      "罽": 2785,
      "羅": 2786,
      "羊": 2787,
      "義": 2788,
      "羽": 2789,
      "習": 2790,
      "翔": 2791,
      "老": 2792,
      "考": 2793,
      "耆": 2794,
      "而": 2795,
      "耶": 2796,
      "耻": 2797,
      "耽": 2798,
      "联": 2799,
      "聖": 2800,
      "聞": 2801,
      "聰": 2802,
      "聲": 2803,
      "職": 2804,
      "聽": 2805,
      "肇": 2806,
      "肉": 2807,
      "肖": 2808,
      "肥": 2809,
      "背": 2810,
      "胡": 2811,
      "能": 2812,
      "脑": 2813,
      "脫": 2814,
      "脾": 2815,
      "腐": 2816,
      "腔": 2817,
      "腺": 2818,
      "膠": 2819,
      "臧": 2820,
      "臨": 2821,
      "自": 2822,
      "至": 2823,
      "致": 2824,
      "舅": 2825,
      "興": 2826,
      "舊": 2827,
      "舐": 2828,
      "舞": 2829,
      "船": 2830,
      "良": 2831,
      "节": 2832,
      "芪": 2833,
      "花": 2834,
      "苦": 2835,
      "英": 2836,
      "茂": 2837,
      "茨": 2838,
      "茲": 2839,
      "茶": 2840,
      "草": 2841,
      "荣": 2842,
      "药": 2843,
      "荼": 2844,
      "莊": 2845,
      "莎": 2846,
      "莫": 2847,
      "菊": 2848,
      "菜": 2849,
      "菩": 2850,
      "華": 2851,
      "营": 2852,
      "萧": 2853,
      "萨": 2854,
      "萬": 2855,
      "葉": 2856,
      "著": 2857,
      "蒋": 2858,
      "蒙": 2859,
      "蓋": 2860,
      "蔡": 2861,
      "蔣": 2862,
      "蕃": 2863,
      "蕅": 2864,
      "蕭": 2865,
      "薩": 2866,
      "藤": 2867,
      "藩": 2868,
      "蘇": 2869,
      "蘊": 2870,
      "虔": 2871,
      "虛": 2872,
      "號": 2873,
      "虫": 2874,
      "蛇": 2875,
      "蛛": 2876,
      "蜀": 2877,
      "蜘": 2878,
      "蝴": 2879,
      "蝶": 2880,
      "衆": 2881,
      "行": 2882,
      "街": 2883,
      "衛": 2884,
      "衡": 2885,
      "衣": 2886,
      "表": 2887,
      "衷": 2888,
      "袁": 2889,
      "裁": 2890,
      "裏": 2891,
      "補": 2892,
      "裡": 2893,
      "褒": 2894,
      "西": 2895,
      "覆": 2896,
      "規": 2897,
      "覚": 2898,
      "親": 2899,
      "観": 2900,
      "视": 2901,
      "解": 2902,
      "言": 2903,
      "訓": 2904,
      "訥": 2905,
      "訶": 2906,
      "試": 2907,
      "詩": 2908,
      "話": 2909,
      "詹": 2910,
      "語": 2911,
      "誠": 2912,
      "誤": 2913,
      "說": 2914,
      "読": 2915,
      "談": 2916,
      "論": 2917,
      "諜": 2918,
      "諡": 2919,
      "諱": 2920,
      "諸": 2921,
      "講": 2922,
      "識": 2923,
      "譚": 2924,
      "譜": 2925,
      "警": 2926,
      "議": 2927,
      "護": 2928,
      "讀": 2929,
      "讓": 2930,
      "让": 2931,
      "议": 2932,
      "记": 2933,
      "证": 2934,
      "诌": 2935,
      "试": 2936,
      "诚": 2937,
      "话": 2938,
      "语": 2939,
      "诸": 2940,
      "谶": 2941,
      "谷": 2942,
      "豁": 2943,
      "豆": 2944,
      "豐": 2945,
      "豔": 2946,
      "豚": 2947,
      "象": 2948,
      "豫": 2949,
      "財": 2950,
      "貴": 2951,
      "賓": 2952,
      "賤": 2953,
      "贊": 2954,
      "质": 2955,
      "贱": 2956,
      "贵": 2957,
      "赔": 2958,
      "赤": 2959,
      "赭": 2960,
      "赵": 2961,
      "越": 2962,
      "趙": 2963,
      "趾": 2964,
      "跤": 2965,
      "踮": 2966,
      "蹴": 2967,
      "身": 2968,
      "車": 2969,
      "軍": 2970,
      "輝": 2971,
      "车": 2972,
      "辖": 2973,
      "辞": 2974,
      "辰": 2975,
      "辻": 2976,
      "过": 2977,
      "这": 2978,
      "迩": 2979,
      "适": 2980,
      "途": 2981,
      "這": 2982,
      "通": 2983,
      "造": 2984,
      "連": 2985,
      "進": 2986,
      "逸": 2987,
      "遅": 2988,
      "遊": 2989,
      "運": 2990,
      "過": 2991,
      "道": 2992,
      "違": 2993,
      "遠": 2994,
      "選": 2995,
      "避": 2996,
      "邓": 2997,
      "那": 2998,
      "邱": 2999,
      "邵": 3000,
      "郎": 3001,
      "郑": 3002,
      "郡": 3003,
      "部": 3004,
      "郭": 3005,
      "都": 3006,
      "鄭": 3007,
      "鄰": 3008,
      "配": 3009,
      "酒": 3010,
      "釁": 3011,
      "里": 3012,
      "重": 3013,
      "野": 3014,
      "量": 3015,
      "金": 3016,
      "釜": 3017,
      "釵": 3018,
      "錄": 3019,
      "鍠": 3020,
      "鎧": 3021,
      "鎮": 3022,
      "鏑": 3023,
      "鐘": 3024,
      "钗": 3025,
      "钱": 3026,
      "锦": 3027,
      "镇": 3028,
      "長": 3029,
      "长": 3030,
      "門": 3031,
      "開": 3032,
      "間": 3033,
      "関": 3034,
      "閣": 3035,
      "闘": 3036,
      "關": 3037,
      "门": 3038,
      "闽": 3039,
      "阜": 3040,
      "阪": 3041,
      "阮": 3042,
      "阳": 3043,
      "阿": 3044,
      "陀": 3045,
      "附": 3046,
      "际": 3047,
      "陇": 3048,
      "陈": 3049,
      "限": 3050,
      "陕": 3051,
      "陛": 3052,
      "院": 3053,
      "陳": 3054,
      "陸": 3055,
      "険": 3056,
      "陽": 3057,
      "隊": 3058,
      "隋": 3059,
      "隍": 3060,
      "際": 3061,
      "隱": 3062,
      "隴": 3063,
      "隶": 3064,
      "隸": 3065,
      "集": 3066,
      "雙": 3067,
      "雨": 3068,
      "雲": 3069,
      "電": 3070,
      "霍": 3071,
      "露": 3072,
      "霸": 3073,
      "青": 3074,
      "非": 3075,
      "面": 3076,
      "靼": 3077,
      "鞠": 3078,
      "韃": 3079,
      "韓": 3080,
      "音": 3081,
      "頃": 3082,
      "領": 3083,
      "頭": 3084,
      "顏": 3085,
      "顓": 3086,
      "願": 3087,
      "顶": 3088,
      "風": 3089,
      "颱": 3090,
      "风": 3091,
      "食": 3092,
      "餅": 3093,
      "館": 3094,
      "首": 3095,
      "香": 3096,
      "馬": 3097,
      "馮": 3098,
      "験": 3099,
      "马": 3100,
      "驻": 3101,
      "骂": 3102,
      "骨": 3103,
      "體": 3104,
      "高": 3105,
      "鬱": 3106,
      "鬼": 3107,
      "魂": 3108,
      "魄": 3109,
      "魏": 3110,
      "魯": 3111,
      "鮮": 3112,
      "鯉": 3113,
      "鯰": 3114,
      "鱈": 3115,
      "鱚": 3116,
      "鱻": 3117,
      "鲁": 3118,
      "鲜": 3119,
      "鳥": 3120,
      "鵑": 3121,
      "鶏": 3122,
      "鹽": 3123,
      "鹿": 3124,
      "麗": 3125,
      "麵": 3126,
      "麻": 3127,
      "黃": 3128,
      "黄": 3129,
      "黑": 3130,
      "黨": 3131,
      "鼓": 3132,
      "齉": 3133,
      "齊": 3134,
      "龍": 3135,
      "龔": 3136,
      "龘": 3137,
      "龙": 3138,
      "龜": 3139,
      "ꙁ": 3140,
      "ꙑ": 3141,
      "ꙗ": 3142,
      "ꜣ": 3143,
      "ꜥ": 3144,
      "Ꜩ": 3145,
      "ꜩ": 3146,
      "ꜳ": 3147,
      "Ꜵ": 3148,
      "ꜵ": 3149,
      "Ꜷ": 3150,
      "ꜷ": 3151,
      "Ꜹ": 3152,
      "ꜹ": 3153,
      "Ꜻ": 3154,
      "ꜻ": 3155,
      "Ꜽ": 3156,
      "ꜽ": 3157,
      "Ꝏ": 3158,
      "ꝏ": 3159,
      "Ꝑ": 3160,
      "ꝛ": 3161,
      "ꞃ": 3162,
      "Ꭓ": 3163,
      "Ꞵ": 3164,
      "ꞵ": 3165,
      "Ꞷ": 3166,
      "ꞷ": 3167,
      "ꦗ": 3168,
      "ꦮ": 3169,
      "ꭡ": 3170,
      "ꭣ": 3171,
      "가": 3172,
      "간": 3173,
      "감": 3174,
      "개": 3175,
      "검": 3176,
      "격": 3177,
      "경": 3178,
      "계": 3179,
      "고": 3180,
      "곡": 3181,
      "공": 3182,
      "관": 3183,
      "광": 3184,
      "교": 3185,
      "구": 3186,
      "국": 3187,
      "군": 3188,
      "규": 3189,
      "그": 3190,
      "글": 3191,
      "급": 3192,
      "기": 3193,
      "김": 3194,
      "꼼": 3195,
      "나": 3196,
      "낳": 3197,
      "녀": 3198,
      "누": 3199,
      "늘": 3200,
      "님": 3201,
      "다": 3202,
      "단": 3203,
      "당": 3204,
      "대": 3205,
      "도": 3206,
      "독": 3207,
      "동": 3208,
      "돼": 3209,
      "드": 3210,
      "등": 3211,
      "라": 3212,
      "란": 3213,
      "람": 3214,
      "래": 3215,
      "랜": 3216,
      "량": 3217,
      "렁": 3218,
      "려": 3219,
      "령": 3220,
      "론": 3221,
      "롱": 3222,
      "뢰": 3223,
      "류": 3224,
      "름": 3225,
      "리": 3226,
      "마": 3227,
      "말": 3228,
      "먹": 3229,
      "면": 3230,
      "명": 3231,
      "몸": 3232,
      "무": 3233,
      "문": 3234,
      "물": 3235,
      "미": 3236,
      "민": 3237,
      "밀": 3238,
      "박": 3239,
      "밥": 3240,
      "배": 3241,
      "백": 3242,
      "범": 3243,
      "별": 3244,
      "보": 3245,
      "복": 3246,
      "부": 3247,
      "북": 3248,
      "비": 3249,
      "사": 3250,
      "산": 3251,
      "삼": 3252,
      "상": 3253,
      "서": 3254,
      "선": 3255,
      "설": 3256,
      "성": 3257,
      "소": 3258,
      "손": 3259,
      "수": 3260,
      "슈": 3261,
      "스": 3262,
      "슬": 3263,
      "시": 3264,
      "식": 3265,
      "실": 3266,
      "씨": 3267,
      "아": 3268,
      "악": 3269,
      "암": 3270,
      "야": 3271,
      "약": 3272,
      "양": 3273,
      "어": 3274,
      "엄": 3275,
      "역": 3276,
      "연": 3277,
      "영": 3278,
      "완": 3279,
      "왕": 3280,
      "우": 3281,
      "운": 3282,
      "울": 3283,
      "원": 3284,
      "육": 3285,
      "윤": 3286,
      "을": 3287,
      "읓": 3288,
      "의": 3289,
      "이": 3290,
      "인": 3291,
      "일": 3292,
      "자": 3293,
      "작": 3294,
      "잠": 3295,
      "장": 3296,
      "재": 3297,
      "전": 3298,
      "절": 3299,
      "정": 3300,
      "조": 3301,
      "족": 3302,
      "종": 3303,
      "좌": 3304,
      "주": 3305,
      "죽": 3306,
      "중": 3307,
      "지": 3308,
      "직": 3309,
      "진": 3310,
      "차": 3311,
      "찬": 3312,
      "참": 3313,
      "천": 3314,
      "철": 3315,
      "첨": 3316,
      "청": 3317,
      "초": 3318,
      "최": 3319,
      "치": 3320,
      "카": 3321,
      "컴": 3322,
      "코": 3323,
      "큰": 3324,
      "타": 3325,
      "태": 3326,
      "통": 3327,
      "특": 3328,
      "파": 3329,
      "판": 3330,
      "퍼": 3331,
      "폐": 3332,
      "포": 3333,
      "표": 3334,
      "품": 3335,
      "풍": 3336,
      "하": 3337,
      "학": 3338,
      "한": 3339,
      "할": 3340,
      "함": 3341,
      "합": 3342,
      "항": 3343,
      "해": 3344,
      "행": 3345,
      "향": 3346,
      "현": 3347,
      "형": 3348,
      "호": 3349,
      "화": 3350,
      "회": 3351,
      "후": 3352,
      "흔": 3353,
      "ﬀ": 3354,
      "ﬁ": 3355,
      "ﬂ": 3356,
      "ﬃ": 3357,
      "ﬄ": 3358,
      "ﬅ": 3359,
      "ﬆ": 3360,
      "ﬓ": 3361,
      "ﬔ": 3362,
      "ﬕ": 3363,
      "ﬖ": 3364,
      "ﬗ": 3365,
      "ﷺ": 3366,
      "︍": 3367,
      "︎": 3368,
      "︢": 3369,
      "︽": 3370,
      "︾": 3371,
      "︿": 3372,
      "﹀": 3373,
      "ﺎ": 3374,
      "ﺕ": 3375,
      "ﺭ": 3376,
      "ﺴ": 3377,
      "ﻗ": 3378,
      "ﻳ": 3379,
      "ﻴ": 3380,
      "（": 3381,
      "）": 3382,
      "，": 3383,
      "／": 3384,
      "４": 3385,
      "～": 3386,
      "･": 3387,
      "￥": 3388,
      "�": 3389,
      "𐅢": 3390,
      "𐆃": 3391,
      "𐒇": 3392,
      "𐒈": 3393,
      "𐒍": 3394,
      "𐒐": 3395,
      "𐒑": 3396,
      "𐒖": 3397,
      "𐒘": 3398,
      "𐒛": 3399,
      "𐒝": 3400,
      "𐤊": 3401,
      "𐤍": 3402,
      "𐤏": 3403,
      "𐤖": 3404,
      "𐤗": 3405,
      "𐤘": 3406,
      "𐤙": 3407,
      "𐰇": 3408,
      "𐰛": 3409,
      "𐰜": 3410,
      "𐰰": 3411,
      "𐰺": 3412,
      "𐰼": 3413,
      "𐱃": 3414,
      "𐱅": 3415,
      "𒅴": 3416,
      "𒊩": 3417,
      "𓃀": 3418,
      "𓄿": 3419,
      "𓅓": 3420,
      "𓆎": 3421,
      "𓇳": 3422,
      "𓇼": 3423,
      "𓊖": 3424,
      "𓋴": 3425,
      "𓏏": 3426,
      "𛀁": 3427,
      "𝕄": 3428,
      "𝕏": 3429,
      "🚲": 3430,
      "🜇": 3431,
      "🜈": 3432,
      "🝛": 3433,
      "🝫": 3434,
      "🝬": 3435,
      "𠔻": 3436,
      "𠲎": 3437,
      "𪚥": 3438,
      "th": 3439,
      "in": 3440,
      "an": 3441,
      "the": 3442,
      "er": 3443,
      "on": 3444,
      "at": 3445,
      "re": 3446,
      "en": 3447,
      "al": 3448,
      "ed": 3449,
      "or": 3450,
      "st": 3451,
      "of": 3452,
      "ar": 3453,
      "and": 3454,
      "es": 3455,
      "is": 3456,
      "as": 3457,
      "it": 3458,
      "ic": 3459,
      "ion": 3460,
      "to": 3461,
      "ing": 3462,
      "ro": 3463,
      "ou": 3464,
      "le": 3465,
      "ent": 3466,
      "ch": 3467,
      "om": 3468,
      "il": 3469,
      "he": 3470,
      "se": 3471,
      "am": 3472,
      "ol": 3473,
      "de": 3474,
      "ct": 3475,
      "ation": 3476,
      "ly": 3477,
      "be": 3478,
      "ve": 3479,
      "for": 3480,
      "ad": 3481,
      "ce": 3482,
      "ur": 3483,
      "ver": 3484,
      "The": 3485,
      "un": 3486,
      "was": 3487,
      "id": 3488,
      "im": 3489,
      "ig": 3490,
      "ow": 3491,
      "wh": 3492,
      "con": 3493,
      "us": 3494,
      "ir": 3495,
      "Wh": 3496,
      "are": 3497,
      "ter": 3498,
      "ul": 3499,
      "ge": 3500,
      "op": 3501,
      "ra": 3502,
      "by": 3503,
      "ist": 3504,
      "la": 3505,
      "ith": 3506,
      "te": 3507,
      "res": 3508,
      "pe": 3509,
      "com": 3510,
      "pro": 3511,
      "mo": 3512,
      "19": 3513,
      "with": 3514,
      "In": 3515,
      "su": 3516,
      "ri": 3517,
      "00": 3518,
      "ate": 3519,
      "ity": 3520,
      "ers": 3521,
      "ut": 3522,
      "ab": 3523,
      "ment": 3524,
      "ma": 3525,
      "oun": 3526,
      "that": 3527,
      "ere": 3528,
      "et": 3529,
      "all": 3530,
      "ot": 3531,
      "ies": 3532,
      "ex": 3533,
      "el": 3534,
      "ther": 3535,
      "What": 3536,
      "ac": 3537,
      "rom": 3538,
      "ap": 3539,
      "oc": 3540,
      "di": 3541,
      "man": 3542,
      "em": 3543,
      "art": 3544,
      "cl": 3545,
      "ish": 3546,
      "from": 3547,
      "li": 3548,
      "ne": 3549,
      "ian": 3550,
      "os": 3551,
      "per": 3552,
      "um": 3553,
      "ich": 3554,
      "est": 3555,
      "ag": 3556,
      "ts": 3557,
      "ay": 3558,
      "qu": 3559,
      "ial": 3560,
      "ive": 3561,
      "over": 3562,
      "ated": 3563,
      "ia": 3564,
      "ran": 3565,
      "ha": 3566,
      "ld": 3567,
      "ical": 3568,
      "por": 3569,
      "ess": 3570,
      "igh": 3571,
      "ear": 3572,
      "der": 3573,
      "were": 3574,
      "ain": 3575,
      "od": 3576,
      "ber": 3577,
      "which": 3578,
      "ill": 3579,
      "ud": 3580,
      "als": 3581,
      "ame": 3582,
      "ary": 3583,
      "sh": 3584,
      "ast": 3585,
      "du": 3586,
      "his": 3587,
      "wor": 3588,
      "end": 3589,
      "20": 3590,
      "iv": 3591,
      "ant": 3592,
      "tw": 3593,
      "form": 3594,
      "our": 3595,
      "Ch": 3596,
      "if": 3597,
      "up": 3598,
      "ip": 3599,
      "ard": 3600,
      "gh": 3601,
      "ction": 3602,
      "cent": 3603,
      "land": 3604,
      "one": 3605,
      "ine": 3606,
      "its": 3607,
      "og": 3608,
      "St": 3609,
      "ong": 3610,
      "age": 3611,
      "ass": 3612,
      "pl": 3613,
      "ph": 3614,
      "ub": 3615,
      "ke": 3616,
      "ure": 3617,
      "Un": 3618,
      "200": 3619,
      "part": 3620,
      "not": 3621,
      "ff": 3622,
      "ition": 3623,
      "str": 3624,
      "has": 3625,
      "rit": 3626,
      "ous": 3627,
      "port": 3628,
      "comp": 3629,
      "iz": 3630,
      "18": 3631,
      "other": 3632,
      "own": 3633,
      "have": 3634,
      "ates": 3635,
      "ore": 3636,
      "ount": 3637,
      "ew": 3638,
      "out": 3639,
      "ations": 3640,
      "ational": 3641,
      "fir": 3642,
      "cont": 3643,
      "ome": 3644,
      "pr": 3645,
      "201": 3646,
      "act": 3647,
      "also": 3648,
      "ign": 3649,
      "ence": 3650,
      "ree": 3651,
      "mer": 3652,
      "pla": 3653,
      "ev": 3654,
      "gu": 3655,
      "au": 3656,
      "first": 3657,
      "ide": 3658,
      "pres": 3659,
      "ound": 3660,
      "but": 3661,
      "year": 3662,
      "),": 3663,
      "av": 3664,
      "ally": 3665,
      "did": 3666,
      "mon": 3667,
      "ult": 3668,
      "ren": 3669,
      "cre": 3670,
      "me": 3671,
      "vers": 3672,
      "ach": 3673,
      "ice": 3674,
      "ire": 3675,
      "ser": 3676,
      "po": 3677,
      "vel": 3678,
      "their": 3679,
      "int": 3680,
      "ry": 3681,
      "sy": 3682,
      "incl": 3683,
      "ect": 3684,
      "used": 3685,
      "most": 3686,
      "cor": 3687,
      "ak": 3688,
      "many": 3689,
      "ced": 3690,
      "low": 3691,
      "co": 3692,
      "ubl": 3693,
      "had": 3694,
      "pre": 3695,
      "pt": 3696,
      "ll": 3697,
      "ater": 3698,
      "bo": 3699,
      "ric": 3700,
      "\",": 3701,
      "ited": 3702,
      "Th": 3703,
      "reg": 3704,
      "can": 3705,
      "ib": 3706,
      "ions": 3707,
      "ks": 3708,
      "min": 3709,
      "do": 3710,
      "ele": 3711,
      "off": 3712,
      "dis": 3713,
      "ime": 3714,
      "ens": 3715,
      "ue": 3716,
      "ight": 3717,
      "count": 3718,
      "inter": 3719,
      "able": 3720,
      ").": 3721,
      "publ": 3722,
      "spe": 3723,
      "who": 3724,
      "overn": 3725,
      "lo": 3726,
      "ces": 3727,
      "gen": 3728,
      "been": 3729,
      "such": 3730,
      "pos": 3731,
      "ory": 3732,
      "It": 3733,
      "lar": 3734,
      "two": 3735,
      "gro": 3736,
      "rad": 3737,
      "pol": 3738,
      "af": 3739,
      "amp": 3740,
      "ance": 3741,
      "col": 3742,
      "vi": 3743,
      "When": 3744,
      "ould": 3745,
      "pop": 3746,
      "ding": 3747,
      "this": 3748,
      "any": 3749,
      "An": 3750,
      "more": 3751,
      "new": 3752,
      "kn": 3753,
      "ile": 3754,
      "cess": 3755,
      "ities": 3756,
      "what": 3757,
      "tra": 3758,
      "ans": 3759,
      "uring": 3760,
      "use": 3761,
      "sc": 3762,
      "Re": 3763,
      "popul": 3764,
      "national": 3765,
      "les": 3766,
      "loc": 3767,
      "ty": 3768,
      "des": 3769,
      "gan": 3770,
      "mar": 3771,
      "stem": 3772,
      "into": 3773,
      "ough": 3774,
      "ident": 3775,
      "How": 3776,
      "ivers": 3777,
      "En": 3778,
      "arch": 3779,
      "ors": 3780,
      "ever": 3781,
      "govern": 3782,
      "prov": 3783,
      "\".": 3784,
      "ust": 3785,
      "ative": 3786,
      "city": 3787,
      "includ": 3788,
      "ds": 3789,
      "As": 3790,
      "than": 3791,
      "serv": 3792,
      "rou": 3793,
      "fin": 3794,
      "call": 3795,
      "De": 3796,
      "lish": 3797,
      "ite": 3798,
      "Amer": 3799,
      "name": 3800,
      "cur": 3801,
      "some": 3802,
      "een": 3803,
      "ten": 3804,
      "ann": 3805,
      "Americ": 3806,
      "Ar": 3807,
      "Com": 3808,
      "ism": 3809,
      "king": 3810,
      "comm": 3811,
      "under": 3812,
      "fe": 3813,
      "ase": 3814,
      "ell": 3815,
      "fer": 3816,
      "rel": 3817,
      "bec": 3818,
      "large": 3819,
      "sp": 3820,
      "Who": 3821,
      "ern": 3822,
      "ese": 3823,
      "rough": 3824,
      "ted": 3825,
      "New": 3826,
      "ince": 3827,
      "lan": 3828,
      "ased": 3829,
      "000": 3830,
      "United": 3831,
      "sub": 3832,
      "cho": 3833,
      "ob": 3834,
      "199": 3835,
      "vis": 3836,
      "ury": 3837,
      "eral": 3838,
      "cons": 3839,
      "we": 3840,
      "main": 3841,
      "betw": 3842,
      "between": 3843,
      "med": 3844,
      "public": 3845,
      "att": 3846,
      "system": 3847,
      "way": 3848,
      "Al": 3849,
      "ific": 3850,
      "ru": 3851,
      "ck": 3852,
      "state": 3853,
      "ta": 3854,
      "Se": 3855,
      "known": 3856,
      "after": 3857,
      "cial": 3858,
      "time": 3859,
      "ments": 3860,
      "they": 3861,
      "ose": 3862,
      "illion": 3863,
      "outh": 3864,
      "produ": 3865,
      "called": 3866,
      "num": 3867,
      "ath": 3868,
      "ents": 3869,
      "olog": 3870,
      "bu": 3871,
      "ang": 3872,
      "iss": 3873,
      "uro": 3874,
      "work": 3875,
      "17": 3876,
      "fl": 3877,
      "Con": 3878,
      "only": 3879,
      "ics": 3880,
      "ok": 3881,
      "fore": 3882,
      "play": 3883,
      "Nor": 3884,
      "no": 3885,
      "rans": 3886,
      "gr": 3887,
      "stru": 3888,
      "Eng": 3889,
      "This": 3890,
      "leg": 3891,
      "velop": 3892,
      "ict": 3893,
      "ual": 3894,
      "oy": 3895,
      "ution": 3896,
      "ons": 3897,
      "cy": 3898,
      "reat": 3899,
      "par": 3900,
      "there": 3901,
      "stit": 3902,
      "air": 3903,
      "old": 3904,
      "ie": 3905,
      "ople": 3906,
      "years": 3907,
      "Euro": 3908,
      "Brit": 3909,
      "cted": 3910,
      "tem": 3911,
      "found": 3912,
      "century": 3913,
      "Af": 3914,
      "day": 3915,
      "iversity": 3916,
      "dist": 3917,
      "ered": 3918,
      "may": 3919,
      "ins": 3920,
      "government": 3921,
      "chool": 3922,
      "led": 3923,
      "langu": 3924,
      "when": 3925,
      "develop": 3926,
      "high": 3927,
      "cond": 3928,
      "Europe": 3929,
      "ace": 3930,
      "He": 3931,
      "aw": 3932,
      "Is": 3933,
      "ort": 3934,
      "jor": 3935,
      "ating": 3936,
      "mem": 3937,
      "Au": 3938,
      "through": 3939,
      "Ger": 3940,
      "red": 3941,
      "bor": 3942,
      "term": 3943,
      "trans": 3944,
      "ari": 3945,
      "ail": 3946,
      "States": 3947,
      "ood": 3948,
      "br": 3949,
      "dom": 3950,
      "sup": 3951,
      "though": 3952,
      "15": 3953,
      "ists": 3954,
      "und": 3955,
      "cap": 3956,
      "during": 3957,
      "set": 3958,
      "Le": 3959,
      "so": 3960,
      "ship": 3961,
      "ost": 3962,
      "ack": 3963,
      "oci": 3964,
      "ject": 3965,
      "world": 3966,
      "ular": 3967,
      "would": 3968,
      "people": 3969,
      "them": 3970,
      "about": 3971,
      "ural": 3972,
      "16": 3973,
      "ton": 3974,
      "urch": 3975,
      "major": 3976,
      "10": 3977,
      "buil": 3978,
      "nam": 3979,
      "diff": 3980,
      "present": 3981,
      "fol": 3982,
      "lin": 3983,
      "population": 3984,
      "law": 3985,
      "stud": 3986,
      "eng": 3987,
      "ix": 3988,
      "dep": 3989,
      "well": 3990,
      "ved": 3991,
      "nor": 3992,
      "Wor": 3993,
      "including": 3994,
      "198": 3995,
      "oper": 3996,
      "For": 3997,
      "ron": 3998,
      "where": 3999,
      "War": 4000,
      "ied": 4001,
      "million": 4002,
      "American": 4003,
      "ized": 4004,
      "ind": 4005,
      "wn": 4006,
      "ude": 4007,
      "three": 4008,
      "197": 4009,
      "ress": 4010,
      "ually": 4011,
      "ful": 4012,
      "bers": 4013,
      "number": 4014,
      "war": 4015,
      "io": 4016,
      "group": 4017,
      "pow": 4018,
      "car": 4019,
      "stand": 4020,
      "organ": 4021,
      "offic": 4022,
      "ext": 4023,
      "Fran": 4024,
      "became": 4025,
      "ca": 4026,
      "hist": 4027,
      "my": 4028,
      "On": 4029,
      "sel": 4030,
      "sur": 4031,
      "come": 4032,
      "0s": 4033,
      "ys": 4034,
      "II": 4035,
      "Par": 4036,
      "ven": 4037,
      "add": 4038,
      "peri": 4039,
      "uc": 4040,
      "sign": 4041,
      "ital": 4042,
      "ically": 4043,
      "ters": 4044,
      "West": 4045,
      "ures": 4046,
      "these": 4047,
      "ily": 4048,
      "net": 4049,
      "Col": 4050,
      "imes": 4051,
      "ient": 4052,
      "ries": 4053,
      "polit": 4054,
      "ise": 4055,
      "vol": 4056,
      "ages": 4057,
      "ctions": 4058,
      "British": 4059,
      "uch": 4060,
      "vent": 4061,
      "requ": 4062,
      "conom": 4063,
      "196": 4064,
      "ablish": 4065,
      "Indi": 4066,
      "gram": 4067,
      "ings": 4068,
      "made": 4069,
      "oh": 4070,
      "long": 4071,
      "char": 4072,
      "ature": 4073,
      "ral": 4074,
      "til": 4075,
      "uss": 4076,
      "iel": 4077,
      "establish": 4078,
      "follow": 4079,
      "her": 4080,
      "thern": 4081,
      "both": 4082,
      "does": 4083,
      "ouse": 4084,
      "school": 4085,
      "cr": 4086,
      "road": 4087,
      "Pro": 4088,
      "cept": 4089,
      "Mar": 4090,
      "Inter": 4091,
      "urn": 4092,
      "University": 4093,
      "World": 4094,
      "div": 4095,
      "being": 4096,
      "igin": 4097,
      "again": 4098,
      "Sp": 4099,
      "then": 4100,
      "depend": 4101,
      "area": 4102,
      "Sc": 4103,
      "contin": 4104,
      "ause": 4105,
      "val": 4106,
      "12": 4107,
      "lead": 4108,
      "ball": 4109,
      "while": 4110,
      "pri": 4111,
      "ond": 4112,
      "ians": 4113,
      "ving": 4114,
      "King": 4115,
      "Can": 4116,
      "spec": 4117,
      "ina": 4118,
      "US": 4119,
      "differ": 4120,
      "National": 4121,
      "tain": 4122,
      "mp": 4123,
      "commun": 4124,
      "common": 4125,
      "ional": 4126,
      "ros": 4127,
      "inn": 4128,
      "often": 4129,
      "based": 4130,
      "ward": 4131,
      "team": 4132,
      "mark": 4133,
      "ium": 4134,
      "pers": 4135,
      "ices": 4136,
      "194": 4137,
      "ale": 4138,
      "ible": 4139,
      "ility": 4140,
      "language": 4141,
      "gy": 4142,
      "mus": 4143,
      "fam": 4144,
      "vari": 4145,
      "writ": 4146,
      "South": 4147,
      "early": 4148,
      "ves": 4149,
      "since": 4150,
      "four": 4151,
      "each": 4152,
      "rench": 4153,
      "ban": 4154,
      "econom": 4155,
      "rist": 4156,
      "ished": 4157,
      "ah": 4158,
      "met": 4159,
      "contro": 4160,
      "incre": 4161,
      "trad": 4162,
      "class": 4163,
      "country": 4164,
      "English": 4165,
      "second": 4166,
      "later": 4167,
      "largest": 4168,
      "partic": 4169,
      "origin": 4170,
      "East": 4171,
      "ames": 4172,
      "cer": 4173,
      "ep": 4174,
      "cover": 4175,
      "west": 4176,
      "French": 4177,
      "line": 4178,
      "include": 4179,
      "14": 4180,
      "ilit": 4181,
      "like": 4182,
      "hy": 4183,
      "BC": 4184,
      "raph": 4185,
      "lands": 4186,
      "liam": 4187,
      "sim": 4188,
      "let": 4189,
      "mber": 4190,
      "Pr": 4191,
      "elect": 4192,
      "Comm": 4193,
      "refer": 4194,
      "ants": 4195,
      "lim": 4196,
      "power": 4197,
      "go": 4198,
      "eff": 4199,
      "ided": 4200,
      "less": 4201,
      "Joh": 4202,
      "Rom": 4203,
      "now": 4204,
      "minist": 4205,
      "sm": 4206,
      "sever": 4207,
      "ample": 4208,
      "dire": 4209,
      "ms": 4210,
      "German": 4211,
      "ology": 4212,
      "ft": 4213,
      "how": 4214,
      "until": 4215,
      "indu": 4216,
      ".\"": 4217,
      "consid": 4218,
      "ild": 4219,
      "program": 4220,
      "az": 4221,
      "resident": 4222,
      "hu": 4223,
      "will": 4224,
      "sol": 4225,
      "dern": 4226,
      "50": 4227,
      "13": 4228,
      "ove": 4229,
      "ash": 4230,
      "point": 4231,
      "mat": 4232,
      "ple": 4233,
      "chn": 4234,
      "alth": 4235,
      "equ": 4236,
      "ract": 4237,
      "cording": 4238,
      "flu": 4239,
      "chan": 4240,
      "North": 4241,
      "non": 4242,
      "Cent": 4243,
      "Or": 4244,
      "example": 4245,
      "ick": 4246,
      "countries": 4247,
      "same": 4248,
      "At": 4249,
      "ord": 4250,
      "son": 4251,
      "head": 4252,
      "official": 4253,
      "ization": 4254,
      "There": 4255,
      "aff": 4256,
      "resp": 4257,
      "ec": 4258,
      "design": 4259,
      "ives": 4260,
      "Christ": 4261,
      "mb": 4262,
      "John": 4263,
      "tal": 4264,
      "European": 4265,
      "vision": 4266,
      "percent": 4267,
      "period": 4268,
      "suc": 4269,
      "Ph": 4270,
      "ious": 4271,
      "support": 4272,
      "men": 4273,
      "dec": 4274,
      "cult": 4275,
      "ef": 4276,
      "pass": 4277,
      "Afric": 4278,
      "members": 4279,
      "ounc": 4280,
      "Car": 4281,
      "against": 4282,
      "gener": 4283,
      "ission": 4284,
      "ret": 4285,
      "(\"": 4286,
      "ared": 4287,
      "remain": 4288,
      "ety": 4289,
      "open": 4290,
      "curren": 4291,
      "rib": 4292,
      "sing": 4293,
      "ired": 4294,
      "allow": 4295,
      "run": 4296,
      "ox": 4297,
      "193": 4298,
      "ended": 4299,
      "import": 4300,
      "fun": 4301,
      "place": 4302,
      "desc": 4303,
      "water": 4304,
      "ting": 4305,
      "imate": 4306,
      "test": 4307,
      "ights": 4308,
      "within": 4309,
      "However": 4310,
      "several": 4311,
      "comple": 4312,
      "ocial": 4313,
      "located": 4314,
      "ris": 4315,
      "Ge": 4316,
      "Canad": 4317,
      "195": 4318,
      "much": 4319,
      "exp": 4320,
      "thor": 4321,
      "gre": 4322,
      "small": 4323,
      "established": 4324,
      "fil": 4325,
      "tradition": 4326,
      "around": 4327,
      "cour": 4328,
      "ouncil": 4329,
      "stitution": 4330,
      "cast": 4331,
      "ier": 4332,
      "states": 4333,
      "fact": 4334,
      "before": 4335,
      "ports": 4336,
      "last": 4337,
      "ste": 4338,
      "atic": 4339,
      "different": 4340,
      "Sh": 4341,
      "ref": 4342,
      "held": 4343,
      "press": 4344,
      "Roman": 4345,
      "self": 4346,
      "tit": 4347,
      "aid": 4348,
      "modern": 4349,
      "ield": 4350,
      "lit": 4351,
      "ctor": 4352,
      "milit": 4353,
      "position": 4354,
      "music": 4355,
      "ides": 4356,
      "level": 4357,
      "City": 4358,
      "result": 4359,
      "local": 4360,
      "..": 4361,
      "cla": 4362,
      "ague": 4363,
      "ley": 4364,
      "ger": 4365,
      "bus": 4366,
      "ason": 4367,
      "ars": 4368,
      "Pol": 4369,
      "ribut": 4370,
      "bre": 4371,
      "ined": 4372,
      "ai": 4373,
      "soci": 4374,
      "ases": 4375,
      "ute": 4376,
      "appe": 4377,
      "began": 4378,
      "those": 4379,
      "process": 4380,
      "Ad": 4381,
      "political": 4382,
      "person": 4383,
      "using": 4384,
      "hel": 4385,
      "une": 4386,
      "Gen": 4387,
      "back": 4388,
      "inc": 4389,
      "rest": 4390,
      "very": 4391,
      "formed": 4392,
      "oot": 4393,
      "ised": 4394,
      "struct": 4395,
      "stral": 4396,
      "near": 4397,
      "ble": 4398,
      "among": 4399,
      "techn": 4400,
      "colle": 4401,
      "region": 4402,
      "ived": 4403,
      "Ex": 4404,
      "ged": 4405,
      "town": 4406,
      "home": 4407,
      "success": 4408,
      "him": 4409,
      "human": 4410,
      "30": 4411,
      "omen": 4412,
      "issu": 4413,
      "vo": 4414,
      "wide": 4415,
      "represent": 4416,
      "Where": 4417,
      "ivil": 4418,
      "ross": 4419,
      "enn": 4420,
      "continu": 4421,
      "former": 4422,
      "iver": 4423,
      "Gu": 4424,
      "app": 4425,
      "influ": 4426,
      "ling": 4427,
      "These": 4428,
      "typ": 4429,
      "Church": 4430,
      "tle": 4431,
      "popular": 4432,
      "hol": 4433,
      "because": 4434,
      "relig": 4435,
      "beg": 4436,
      "Austral": 4437,
      "ploy": 4438,
      "defin": 4439,
      "recor": 4440,
      "prof": 4441,
      "Sy": 4442,
      "rec": 4443,
      "ade": 4444,
      "May": 4445,
      "Co": 4446,
      "11": 4447,
      "Russ": 4448,
      "view": 4449,
      "ize": 4450,
      "areas": 4451,
      "2010": 4452,
      "camp": 4453,
      "Gree": 4454,
      "international": 4455,
      "thod": 4456,
      "By": 4457,
      "25": 4458,
      "Bo": 4459,
      "ik": 4460,
      "ified": 4461,
      "order": 4462,
      "current": 4463,
      "\")": 4464,
      "ration": 4465,
      "could": 4466,
      "move": 4467,
      "independ": 4468,
      "Wil": 4469,
      "ctive": 4470,
      "appro": 4471,
      "ences": 4472,
      "apan": 4473,
      "Pe": 4474,
      "tele": 4475,
      "building": 4476,
      "formation": 4477,
      "effect": 4478,
      "even": 4479,
      "lack": 4480,
      "enc": 4481,
      "military": 4482,
      "fac": 4483,
      "rece": 4484,
      "Japan": 4485,
      "word": 4486,
      "Ser": 4487,
      "late": 4488,
      "Republic": 4489,
      "ork": 4490,
      "fed": 4491,
      "International": 4492,
      "anu": 4493,
      "rele": 4494,
      "France": 4495,
      "down": 4496,
      "east": 4497,
      "omet": 4498,
      "Ro": 4499,
      "company": 4500,
      "ality": 4501,
      "ave": 4502,
      "become": 4503,
      "Geor": 4504,
      "prim": 4505,
      "cle": 4506,
      "bas": 4507,
      "Ac": 4508,
      "ories": 4509,
      "search": 4510,
      "tro": 4511,
      "Ma": 4512,
      "top": 4513,
      "bur": 4514,
      "along": 4515,
      "ats": 4516,
      "standard": 4517,
      "England": 4518,
      "cts": 4519,
      "control": 4520,
      "2011": 4521,
      "Ju": 4522,
      "bod": 4523,
      "pat": 4524,
      "start": 4525,
      "important": 4526,
      "que": 4527,
      "light": 4528,
      "author": 4529,
      "tic": 4530,
      "They": 4531,
      "Min": 4532,
      "social": 4533,
      "sk": 4534,
      "dest": 4535,
      "developed": 4536,
      "ped": 4537,
      "hip": 4538,
      "President": 4539,
      "still": 4540,
      "Char": 4541,
      "histor": 4542,
      "York": 4543,
      "put": 4544,
      "Ital": 4545,
      "show": 4546,
      "ird": 4547,
      "After": 4548,
      "rab": 4549,
      "charact": 4550,
      "educ": 4551,
      "change": 4552,
      "addition": 4553,
      "sch": 4554,
      "ales": 4555,
      "stat": 4556,
      "usually": 4557,
      "considered": 4558,
      "five": 4559,
      "vir": 4560,
      "ata": 4561,
      "intro": 4562,
      "ilar": 4563,
      "den": 4564,
      "claim": 4565,
      "def": 4566,
      "poss": 4567,
      "ival": 4568,
      "rul": 4569,
      "life": 4570,
      "ner": 4571,
      "mag": 4572,
      "Be": 4573,
      "introdu": 4574,
      "tak": 4575,
      "compe": 4576,
      "capital": 4577,
      "employ": 4578,
      "right": 4579,
      "see": 4580,
      "due": 4581,
      "Union": 4582,
      "2008": 4583,
      "child": 4584,
      "nal": 4585,
      "mic": 4586,
      "hal": 4587,
      "tr": 4588,
      "vest": 4589,
      "grow": 4590,
      "Part": 4591,
      "ogn": 4592,
      "pract": 4593,
      "Some": 4594,
      "chang": 4595,
      "2012": 4596,
      "posed": 4597,
      "India": 4598,
      "Med": 4599,
      "published": 4600,
      "ock": 4601,
      "built": 4602,
      "giv": 4603,
      "mid": 4604,
      "ather": 4605,
      "broad": 4606,
      "Oc": 4607,
      "decl": 4608,
      "particular": 4609,
      "rate": 4610,
      "grad": 4611,
      "created": 4612,
      "sum": 4613,
      "Scot": 4614,
      "row": 4615,
      "president": 4616,
      "territ": 4617,
      "post": 4618,
      "beli": 4619,
      "Mon": 4620,
      "read": 4621,
      "direct": 4622,
      "plic": 4623,
      "Cor": 4624,
      "2007": 4625,
      "Man": 4626,
      "general": 4627,
      "prote": 4628,
      "development": 4629,
      "eb": 4630,
      "ges": 4631,
      "ines": 4632,
      "anish": 4633,
      "jo": 4634,
      "north": 4635,
      "service": 4636,
      "iness": 4637,
      "Mus": 4638,
      "total": 4639,
      "exist": 4640,
      "dra": 4641,
      "market": 4642,
      "administ": 4643,
      "Air": 4644,
      "ones": 4645,
      "So": 4646,
      "mit": 4647,
      "languages": 4648,
      "contain": 4649,
      "stri": 4650,
      "del": 4651,
      "field": 4652,
      "ps": 4653,
      "death": 4654,
      "following": 4655,
      "mot": 4656,
      "founded": 4657,
      "ked": 4658,
      "gust": 4659,
      "gest": 4660,
      "type": 4661,
      "Sw": 4662,
      "2009": 4663,
      "Ne": 4664,
      "ability": 4665,
      "pur": 4666,
      "ator": 4667,
      "Council": 4668,
      "divid": 4669,
      "hand": 4670,
      "south": 4671,
      "report": 4672,
      "ster": 4673,
      "Act": 4674,
      "force": 4675,
      "record": 4676,
      "bal": 4677,
      "August": 4678,
      "free": 4679,
      "uses": 4680,
      "ency": 4681,
      "ense": 4682,
      "2013": 4683,
      "Lat": 4684,
      "Cl": 4685,
      "State": 4686,
      "forms": 4687,
      "Emp": 4688,
      "bi": 4689,
      "adv": 4690,
      "China": 4691,
      "cell": 4692,
      "comb": 4693,
      "nat": 4694,
      "Germany": 4695,
      "Janu": 4696,
      "cal": 4697,
      "ering": 4698,
      "January": 4699,
      "history": 4700,
      "liament": 4701,
      "research": 4702,
      "tax": 4703,
      "just": 4704,
      "March": 4705,
      "fur": 4706,
      "24": 4707,
      "tex": 4708,
      "ham": 4709,
      "separ": 4710,
      "host": 4711,
      "River": 4712,
      "Empire": 4713,
      "house": 4714,
      "ination": 4715,
      "tober": 4716,
      "event": 4717,
      "tember": 4718,
      "ograph": 4719,
      "ze": 4720,
      "outhern": 4721,
      "October": 4722,
      "June": 4723,
      "groups": 4724,
      "ony": 4725,
      "House": 4726,
      "During": 4727,
      "sequ": 4728,
      "bert": 4729,
      "July": 4730,
      "occ": 4731,
      "another": 4732,
      "rain": 4733,
      "far": 4734,
      "2006": 4735,
      "signific": 4736,
      "yn": 4737,
      "university": 4738,
      "Sep": 4739,
      "ana": 4740,
      "Mo": 4741,
      "similar": 4742,
      "although": 4743,
      "six": 4744,
      "Govern": 4745,
      "aries": 4746,
      "aver": 4747,
      "lay": 4748,
      "ae": 4749,
      "America": 4750,
      "individ": 4751,
      "Arab": 4752,
      "get": 4753,
      "mean": 4754,
      "Kingdom": 4755,
      "September": 4756,
      "ei": 4757,
      "evol": 4758,
      "various": 4759,
      "cing": 4760,
      "2014": 4761,
      "took": 4762,
      "ootball": 4763,
      "ug": 4764,
      "economic": 4765,
      "key": 4766,
      "occur": 4767,
      "ister": 4768,
      "Dece": 4769,
      "students": 4770,
      "December": 4771,
      "cra": 4772,
      "ential": 4773,
      "La": 4774,
      "olic": 4775,
      "make": 4776,
      "recogn": 4777,
      "priv": 4778,
      "ung": 4779,
      "crit": 4780,
      "Lond": 4781,
      "tri": 4782,
      "schools": 4783,
      "General": 4784,
      "Cour": 4785,
      "ways": 4786,
      "dro": 4787,
      "London": 4788,
      "rict": 4789,
      "itions": 4790,
      "systems": 4791,
      "ently": 4792,
      "Canada": 4793,
      "every": 4794,
      "associ": 4795,
      "bar": 4796,
      "League": 4797,
      "range": 4798,
      "sty": 4799,
      "Cal": 4800,
      "Am": 4801,
      "2015": 4802,
      "sour": 4803,
      "ergy": 4804,
      "Bar": 4805,
      "works": 4806,
      "redu": 4807,
      "log": 4808,
      "190": 4809,
      "civil": 4810,
      "conne": 4811,
      "ript": 4812,
      "ram": 4813,
      "ues": 4814,
      "40": 4815,
      "100": 4816,
      "Apr": 4817,
      "member": 4818,
      "ometimes": 4819,
      "plan": 4820,
      "cities": 4821,
      "April": 4822,
      "included": 4823,
      "cially": 4824,
      "Greek": 4825,
      "cul": 4826,
      "book": 4827,
      "speak": 4828,
      "Christian": 4829,
      "percentage": 4830,
      "party": 4831,
      "reach": 4832,
      "polic": 4833,
      "single": 4834,
      "ax": 4835,
      "dle": 4836,
      "side": 4837,
      "placed": 4838,
      "har": 4839,
      "Port": 4840,
      "few": 4841,
      "family": 4842,
      "189": 4843,
      "stry": 4844,
      "named": 4845,
      "proper": 4846,
      "Ed": 4847,
      "sit": 4848,
      "Colle": 4849,
      "however": 4850,
      "billion": 4851,
      "Li": 4852,
      "take": 4853,
      "species": 4854,
      "cop": 4855,
      "study": 4856,
      "significant": 4857,
      "21": 4858,
      "init": 4859,
      "ision": 4860,
      "without": 4861,
      "aper": 4862,
      "she": 4863,
      "School": 4864,
      "women": 4865,
      "Har": 4866,
      "body": 4867,
      "oss": 4868,
      "ming": 4869,
      "ological": 4870,
      "ience": 4871,
      "Phil": 4872,
      "eth": 4873,
      "inte": 4874,
      "list": 4875,
      "attle": 4876,
      "mult": 4877,
      "third": 4878,
      "Western": 4879,
      "tour": 4880,
      "Spanish": 4881,
      "constru": 4882,
      "inning": 4883,
      "Great": 4884,
      "month": 4885,
      "won": 4886,
      "legal": 4887,
      "Cath": 4888,
      "services": 4889,
      "given": 4890,
      "According": 4891,
      "Count": 4892,
      "Jew": 4893,
      "bel": 4894,
      "church": 4895,
      "ets": 4896,
      "lam": 4897,
      "Nove": 4898,
      "Other": 4899,
      "November": 4900,
      "rail": 4901,
      "trade": 4902,
      "ula": 4903,
      "60": 4904,
      "Chin": 4905,
      "isl": 4906,
      "Latin": 4907,
      "unch": 4908,
      "ning": 4909,
      "activ": 4910,
      "central": 4911,
      "played": 4912,
      "special": 4913,
      "band": 4914,
      "series": 4915,
      "Cong": 4916,
      "phys": 4917,
      "character": 4918,
      "lect": 4919,
      "island": 4920,
      "case": 4921,
      "forces": 4922,
      "unic": 4923,
      "ensive": 4924,
      "describ": 4925,
      "season": 4926,
      "useum": 4927,
      "ene": 4928,
      "sometimes": 4929,
      "corpor": 4930,
      "sex": 4931,
      "22": 4932,
      "reed": 4933,
      "rights": 4934,
      "arian": 4935,
      "times": 4936,
      "2005": 4937,
      "compan": 4938,
      "Court": 4939,
      "One": 4940,
      "half": 4941,
      "invol": 4942,
      "mig": 4943,
      "domin": 4944,
      "disc": 4945,
      "Roy": 4946,
      "lines": 4947,
      "Sovi": 4948,
      "Ear": 4949,
      "ler": 4950,
      "Me": 4951,
      "profess": 4952,
      "ness": 4953,
      "Res": 4954,
      "education": 4955,
      "No": 4956,
      "Chinese": 4957,
      "ification": 4958,
      "College": 4959,
      "Indian": 4960,
      "vious": 4961,
      "production": 4962,
      "private": 4963,
      "adop": 4964,
      "Africa": 4965,
      "ounced": 4966,
      "Que": 4967,
      "Pal": 4968,
      "bet": 4969,
      "avail": 4970,
      "ured": 4971,
      "23": 4972,
      "Park": 4973,
      "William": 4974,
      "game": 4975,
      "vice": 4976,
      "Comp": 4977,
      "sure": 4978,
      "Party": 4979,
      "espe": 4980,
      "cir": 4981,
      "stitut": 4982,
      "semb": 4983,
      "action": 4984,
      "termin": 4985,
      "wards": 4986,
      "rid": 4987,
      "ards": 4988,
      "business": 4989,
      "ships": 4990,
      "bour": 4991,
      "quar": 4992,
      "Gre": 4993,
      "gl": 4994,
      "real": 4995,
      "glo": 4996,
      "site": 4997,
      "ably": 4998,
      "mand": 4999,
      "27": 5000,
      "return": 5001,
      "incip": 5002,
      "pen": 5003,
      "Ab": 5004,
      "All": 5005,
      "feat": 5006,
      "ief": 5007,
      "imately": 5008,
      "Mid": 5009,
      "aul": 5010,
      "recent": 5011,
      "need": 5012,
      "His": 5013,
      "hest": 5014,
      "average": 5015,
      "cit": 5016,
      "referred": 5017,
      "generally": 5018,
      "written": 5019,
      "bro": 5020,
      "mass": 5021,
      "28": 5022,
      "invest": 5023,
      "treat": 5024,
      "produced": 5025,
      "gra": 5026,
      "introduced": 5027,
      "liter": 5028,
      "tern": 5029,
      "Australia": 5030,
      "vil": 5031,
      "original": 5032,
      "cost": 5033,
      "ius": 5034,
      "NA": 5035,
      "mater": 5036,
      "idence": 5037,
      "face": 5038,
      "Reg": 5039,
      "ops": 5040,
      "ental": 5041,
      "ama": 5042,
      "roy": 5043,
      "ples": 5044,
      "said": 5045,
      "avy": 5046,
      "ried": 5047,
      "anc": 5048,
      "ior": 5049,
      "either": 5050,
      "bon": 5051,
      "came": 5052,
      "appoint": 5053,
      "natural": 5054,
      "George": 5055,
      "187": 5056,
      "TV": 5057,
      "compos": 5058,
      "188": 5059,
      "earli": 5060,
      "majority": 5061,
      "inf": 5062,
      "ison": 5063,
      "television": 5064,
      "colon": 5065,
      "annel": 5066,
      "nic": 5067,
      "Feb": 5068,
      "Many": 5069,
      "meas": 5070,
      "lex": 5071,
      "Tur": 5072,
      "elected": 5073,
      "ountain": 5074,
      "respons": 5075,
      "African": 5076,
      ".,": 5077,
      "ford": 5078,
      "ek": 5079,
      "Febru": 5080,
      "partment": 5081,
      "Soviet": 5082,
      "February": 5083,
      "UK": 5084,
      "terms": 5085,
      "ending": 5086,
      "interest": 5087,
      "federal": 5088,
      "ecut": 5089,
      "Hol": 5090,
      "Island": 5091,
      "IS": 5092,
      "left": 5093,
      "hab": 5094,
      "rote": 5095,
      "children": 5096,
      "moved": 5097,
      "club": 5098,
      "parts": 5099,
      "tar": 5100,
      "ank": 5101,
      "health": 5102,
      "sug": 5103,
      "turn": 5104,
      "ranch": 5105,
      "ush": 5106,
      "Britain": 5107,
      "26": 5108,
      "great": 5109,
      "must": 5110,
      "role": 5111,
      "especially": 5112,
      "broadcast": 5113,
      "close": 5114,
      "Royal": 5115,
      "ico": 5116,
      "ney": 5117,
      "project": 5118,
      "anim": 5119,
      "available": 5120,
      "Army": 5121,
      "launch": 5122,
      "wrote": 5123,
      "coast": 5124,
      "estim": 5125,
      "continued": 5126,
      "religious": 5127,
      "era": 5128,
      "ored": 5129,
      "maint": 5130,
      "Te": 5131,
      "29": 5132,
      "186": 5133,
      "cret": 5134,
      "network": 5135,
      "osop": 5136,
      "hig": 5137,
      "nation": 5138,
      "ria": 5139,
      "stre": 5140,
      "Catholic": 5141,
      "inst": 5142,
      "fall": 5143,
      "died": 5144,
      "inv": 5145,
      "Ber": 5146,
      "access": 5147,
      "highest": 5148,
      "vot": 5149,
      "higher": 5150,
      "film": 5151,
      "lear": 5152,
      "mocr": 5153,
      "rap": 5154,
      "San": 5155,
      "lat": 5156,
      "short": 5157,
      "argu": 5158,
      "hold": 5159,
      "attem": 5160,
      "asing": 5161,
      "Lou": 5162,
      "Mal": 5163,
      "others": 5164,
      "ken": 5165,
      "aren": 5166,
      "method": 5167,
      "making": 5168,
      "certain": 5169,
      "outs": 5170,
      "subject": 5171,
      "data": 5172,
      "ids": 5173,
      "anal": 5174,
      "material": 5175,
      "With": 5176,
      "istic": 5177,
      "having": 5178,
      "medi": 5179,
      "further": 5180,
      "previous": 5181,
      "lower": 5182,
      "High": 5183,
      "inal": 5184,
      "strong": 5185,
      "foreign": 5186,
      "iction": 5187,
      "Vi": 5188,
      "win": 5189,
      "energy": 5190,
      "includes": 5191,
      "Oly": 5192,
      "ply": 5193,
      "Fed": 5194,
      "commer": 5195,
      "sent": 5196,
      "Olymp": 5197,
      "radio": 5198,
      "phil": 5199,
      "Em": 5200,
      "viron": 5201,
      "sw": 5202,
      "\"),": 5203,
      "2016": 5204,
      "released": 5205,
      "structure": 5206,
      "legisl": 5207,
      "western": 5208,
      "lied": 5209,
      "cade": 5210,
      "related": 5211,
      "information": 5212,
      "Central": 5213,
      "Since": 5214,
      "ery": 5215,
      "mal": 5216,
      "aint": 5217,
      "rian": 5218,
      "arily": 5219,
      "days": 5220,
      "names": 5221,
      "hom": 5222,
      "across": 5223,
      "gran": 5224,
      "Although": 5225,
      "ole": 5226,
      "Charles": 5227,
      "served": 5228,
      "reme": 5229,
      "election": 5230,
      "rown": 5231,
      "Bel": 5232,
      "ators": 5233,
      "Russian": 5234,
      "ampion": 5235,
      "Her": 5236,
      "industry": 5237,
      "ify": 5238,
      "ffic": 5239,
      "should": 5240,
      "lor": 5241,
      "Congress": 5242,
      "ls": 5243,
      "acy": 5244,
      "pay": 5245,
      "gain": 5246,
      "covered": 5247,
      "acc": 5248,
      "univers": 5249,
      "19th": 5250,
      "ington": 5251,
      "enced": 5252,
      "evolution": 5253,
      "2000": 5254,
      "community": 5255,
      "Go": 5256,
      "independent": 5257,
      "traditional": 5258,
      "ground": 5259,
      "full": 5260,
      "ership": 5261,
      "exam": 5262,
      "ining": 5263,
      "via": 5264,
      "Most": 5265,
      "sla": 5266,
      "rule": 5267,
      "Hu": 5268,
      "lled": 5269,
      "companies": 5270,
      "itte": 5271,
      "sec": 5272,
      "title": 5273,
      "2004": 5274,
      "vention": 5275,
      "ago": 5276,
      "followed": 5277,
      "princip": 5278,
      "model": 5279,
      "ope": 5280,
      "Sch": 5281,
      "object": 5282,
      "stead": 5283,
      "umb": 5284,
      "theory": 5285,
      "station": 5286,
      "finan": 5287,
      "ference": 5288,
      "van": 5289,
      "itch": 5290,
      "teams": 5291,
      "occup": 5292,
      "Common": 5293,
      "uter": 5294,
      "text": 5295,
      "movement": 5296,
      "version": 5297,
      "care": 5298,
      "throughout": 5299,
      "games": 5300,
      "consist": 5301,
      "court": 5302,
      "ray": 5303,
      "respe": 5304,
      "Associ": 5305,
      "rand": 5306,
      "dig": 5307,
      "Su": 5308,
      "Sun": 5309,
      "jud": 5310,
      "communic": 5311,
      "80": 5312,
      "graph": 5313,
      "James": 5314,
      "divided": 5315,
      "Louis": 5316,
      "stant": 5317,
      "maintain": 5318,
      "gree": 5319,
      "ring": 5320,
      "least": 5321,
      "aged": 5322,
      "itect": 5323,
      "ocu": 5324,
      "approx": 5325,
      "Ap": 5326,
      "sea": 5327,
      "engine": 5328,
      "mission": 5329,
      "provide": 5330,
      "bit": 5331,
      "football": 5332,
      "syn": 5333,
      "culture": 5334,
      "except": 5335,
      "announced": 5336,
      "live": 5337,
      "stitute": 5338,
      "constitution": 5339,
      "ask": 5340,
      "lic": 5341,
      "best": 5342,
      "philosop": 5343,
      "agree": 5344,
      "burg": 5345,
      "acqu": 5346,
      "Ire": 5347,
      "chem": 5348,
      "date": 5349,
      "gradu": 5350,
      "accept": 5351,
      "eved": 5352,
      "arded": 5353,
      "na": 5354,
      "Bra": 5355,
      "proble": 5356,
      "ino": 5357,
      "atives": 5358,
      "vironment": 5359,
      "space": 5360,
      "ots": 5361,
      "oto": 5362,
      "Islam": 5363,
      "applic": 5364,
      "spo": 5365,
      "Cup": 5366,
      "income": 5367,
      "Japanese": 5368,
      "final": 5369,
      "base": 5370,
      "opened": 5371,
      "hous": 5372,
      "Parliament": 5373,
      "distin": 5374,
      "temper": 5375,
      "And": 5376,
      "Ireland": 5377,
      "separate": 5378,
      "frequ": 5379,
      "rather": 5380,
      "increased": 5381,
      "Pri": 5382,
      "urban": 5383,
      "ilities": 5384,
      "Per": 5385,
      "ateg": 5386,
      "style": 5387,
      "bir": 5388,
      "curity": 5389,
      "northern": 5390,
      "means": 5391,
      "growth": 5392,
      "iation": 5393,
      "neg": 5394,
      "quest": 5395,
      "increase": 5396,
      "function": 5397,
      "territory": 5398,
      "Muslim": 5399,
      "policy": 5400,
      "described": 5401,
      "share": 5402,
      "ially": 5403,
      "county": 5404,
      "Hen": 5405,
      "fem": 5406,
      "Old": 5407,
      "ront": 5408,
      "illed": 5409,
      "instru": 5410,
      "ances": 5411,
      "ica": 5412,
      "wealth": 5413,
      "gether": 5414,
      "words": 5415,
      "atory": 5416,
      "good": 5417,
      "conc": 5418,
      "whe": 5419,
      "dam": 5420,
      "Egy": 5421,
      "gin": 5422,
      "ping": 5423,
      "dial": 5424,
      "itor": 5425,
      "ov": 5426,
      "active": 5427,
      "pot": 5428,
      "rael": 5429,
      "foc": 5430,
      "deb": 5431,
      "alt": 5432,
      "meaning": 5433,
      "kes": 5434,
      "docu": 5435,
      "Egypt": 5436,
      "ensus": 5437,
      "sen": 5438,
      "successful": 5439,
      "CA": 5440,
      "County": 5441,
      "office": 5442,
      "bl": 5443,
      "ander": 5444,
      "commonly": 5445,
      "dri": 5446,
      "unicip": 5447,
      "500": 5448,
      "hib": 5449,
      "execut": 5450,
      "lood": 5451,
      "primary": 5452,
      "itself": 5453,
      "ane": 5454,
      "Ste": 5455,
      "economy": 5456,
      "relation": 5457,
      "lant": 5458,
      "Gro": 5459,
      "meet": 5460,
      "scient": 5461,
      "above": 5462,
      "oks": 5463,
      "cases": 5464,
      "proved": 5465,
      "viol": 5466,
      "pread": 5467,
      "according": 5468,
      "nia": 5469,
      "Mac": 5470,
      "oil": 5471,
      "Israel": 5472,
      "itive": 5473,
      "ades": 5474,
      "cean": 5475,
      "Eastern": 5476,
      "gas": 5477,
      "Ca": 5478,
      "ends": 5479,
      "appear": 5480,
      "individual": 5481,
      "fort": 5482,
      "Sen": 5483,
      "istan": 5484,
      "acks": 5485,
      "Government": 5486,
      "influence": 5487,
      "possible": 5488,
      "thus": 5489,
      "While": 5490,
      "Mex": 5491,
      "provided": 5492,
      "Des": 5493,
      "suggest": 5494,
      "za": 5495,
      "designed": 5496,
      "defined": 5497,
      "rock": 5498,
      "ben": 5499,
      "aut": 5500,
      "Center": 5501,
      "sound": 5502,
      "seven": 5503,
      "events": 5504,
      "southern": 5505,
      "Northern": 5506,
      "received": 5507,
      "Dav": 5508,
      "construction": 5509,
      "born": 5510,
      "ought": 5511,
      "fail": 5512,
      "particip": 5513,
      "gress": 5514,
      "ceed": 5515,
      "architect": 5516,
      "status": 5517,
      "185": 5518,
      "citiz": 5519,
      "Spain": 5520,
      "aign": 5521,
      "script": 5522,
      "brid": 5523,
      "hour": 5524,
      "Asia": 5525,
      "Association": 5526,
      "know": 5527,
      "complete": 5528,
      "fig": 5529,
      "expe": 5530,
      "entire": 5531,
      "estimated": 5532,
      "To": 5533,
      "almost": 5534,
      "\").": 5535,
      "Mc": 5536,
      "Lu": 5537,
      "God": 5538,
      "Paul": 5539,
      "particularly": 5540,
      "theast": 5541,
      "types": 5542,
      "cu": 5543,
      "Vir": 5544,
      "distribut": 5545,
      "Tw": 5546,
      "labor": 5547,
      "outside": 5548,
      "Italy": 5549,
      "uries": 5550,
      "attempt": 5551,
      "uel": 5552,
      "say": 5553,
      "taken": 5554,
      "required": 5555,
      "living": 5556,
      "together": 5557,
      "pan": 5558,
      "teen": 5559,
      "ints": 5560,
      "omin": 5561,
      "hor": 5562,
      "saw": 5563,
      "oney": 5564,
      "strial": 5565,
      "settle": 5566,
      "Cam": 5567,
      "cultural": 5568,
      "allowed": 5569,
      "Commun": 5570,
      "owned": 5571,
      "regul": 5572,
      "From": 5573,
      "express": 5574,
      "white": 5575,
      "atch": 5576,
      "ittee": 5577,
      "Law": 5578,
      "code": 5579,
      "reported": 5580,
      "wood": 5581,
      "erous": 5582,
      "food": 5583,
      "sembly": 5584,
      "source": 5585,
      "20th": 5586,
      "mor": 5587,
      "newsp": 5588,
      "Fir": 5589,
      "ket": 5590,
      "omb": 5591,
      "pose": 5592,
      "fish": 5593,
      "Red": 5594,
      "Aust": 5595,
      "seen": 5596,
      "upon": 5597,
      "ills": 5598,
      "adopted": 5599,
      "Val": 5600,
      "organization": 5601,
      "commercial": 5602,
      "leading": 5603,
      "sof": 5604,
      "osp": 5605,
      "184": 5606,
      "remained": 5607,
      "ising": 5608,
      "next": 5609,
      "sett": 5610,
      "condu": 5611,
      "contribut": 5612,
      "transport": 5613,
      "associated": 5614,
      "anti": 5615,
      "compet": 5616,
      "35": 5617,
      "laws": 5618,
      "size": 5619,
      "tre": 5620,
      "Minister": 5621,
      "eration": 5622,
      "che": 5623,
      "UN": 5624,
      "Stre": 5625,
      "adium": 5626,
      "minor": 5627,
      "Democr": 5628,
      "regions": 5629,
      "begin": 5630,
      "Company": 5631,
      "replaced": 5632,
      "channel": 5633,
      "Mor": 5634,
      "attack": 5635,
      "expl": 5636,
      "Sea": 5637,
      "round": 5638,
      "Ir": 5639,
      "plant": 5640,
      "emer": 5641,
      "experi": 5642,
      "approximately": 5643,
      "emp": 5644,
      "respon": 5645,
      "Canadian": 5646,
      "specific": 5647,
      "Bud": 5648,
      "zer": 5649,
      "2003": 5650,
      "audi": 5651,
      "vote": 5652,
      "feature": 5653,
      "center": 5654,
      "started": 5655,
      "hon": 5656,
      "utch": 5657,
      "70": 5658,
      "Sup": 5659,
      "mos": 5660,
      "vide": 5661,
      "sell": 5662,
      "Russia": 5663,
      "army": 5664,
      "2001": 5665,
      "ink": 5666,
      "Ter": 5667,
      "coming": 5668,
      "print": 5669,
      "river": 5670,
      "regular": 5671,
      "whose": 5672,
      "passed": 5673,
      "Italian": 5674,
      "relative": 5675,
      "tail": 5676,
      "FA": 5677,
      "appointed": 5678,
      "stations": 5679,
      "require": 5680,
      "thing": 5681,
      "degree": 5682,
      "III": 5683,
      "programs": 5684,
      "song": 5685,
      "We": 5686,
      "Hist": 5687,
      "increasing": 5688,
      "indic": 5689,
      "match": 5690,
      "ique": 5691,
      "typically": 5692,
      "today": 5693,
      "science": 5694,
      "agement": 5695,
      "wa": 5696,
      "ili": 5697,
      "financial": 5698,
      "board": 5699,
      "First": 5700,
      "practice": 5701,
      "plement": 5702,
      "media": 5703,
      "ires": 5704,
      "rat": 5705,
      "rug": 5706,
      "Kore": 5707,
      "chest": 5708,
      "border": 5709,
      "icle": 5710,
      "symb": 5711,
      "ging": 5712,
      "etro": 5713,
      "ricult": 5714,
      "31": 5715,
      "black": 5716,
      "centre": 5717,
      "Thom": 5718,
      "craft": 5719,
      "environment": 5720,
      "libr": 5721,
      "concern": 5722,
      "clos": 5723,
      "Department": 5724,
      "bound": 5725,
      "limited": 5726,
      "Earth": 5727,
      "changes": 5728,
      "uals": 5729,
      "tempor": 5730,
      "break": 5731,
      "famous": 5732,
      "electric": 5733,
      "miss": 5734,
      "Sam": 5735,
      "ara": 5736,
      "ites": 5737,
      "Middle": 5738,
      "Islands": 5739,
      "Wash": 5740,
      "iding": 5741,
      "liber": 5742,
      "90": 5743,
      "Lab": 5744,
      "Queen": 5745,
      "lon": 5746,
      "institut": 5747,
      "rought": 5748,
      "vert": 5749,
      "cks": 5750,
      "Pac": 5751,
      "branch": 5752,
      "nuc": 5753,
      "Tele": 5754,
      "campaign": 5755,
      "district": 5756,
      "directly": 5757,
      "ancient": 5758,
      "Im": 5759,
      "rative": 5760,
      "travel": 5761,
      "neigh": 5762,
      "lif": 5763,
      "Philip": 5764,
      "pts": 5765,
      "pite": 5766,
      "\"?": 5767,
      "Henry": 5768,
      "mob": 5769,
      "manu": 5770,
      "expand": 5771,
      "web": 5772,
      "working": 5773,
      "week": 5774,
      "Alex": 5775,
      "technology": 5776,
      "Mad": 5777,
      "islands": 5778,
      "odes": 5779,
      "Museum": 5780,
      "2002": 5781,
      "teach": 5782,
      "ethnic": 5783,
      "Jer": 5784,
      "Ze": 5785,
      "rup": 5786,
      "account": 5787,
      "Bay": 5788,
      "Qu": 5789,
      "Commission": 5790,
      "Swed": 5791,
      "manufact": 5792,
      "EC": 5793,
      "beginning": 5794,
      "rich": 5795,
      "ky": 5796,
      "Americans": 5797,
      "selves": 5798,
      "Dutch": 5799,
      "unit": 5800,
      "ixed": 5801,
      "flow": 5802,
      "enter": 5803,
      "capt": 5804,
      "opt": 5805,
      "peror": 5806,
      "sports": 5807,
      "complex": 5808,
      "sil": 5809,
      "Nations": 5810,
      "Washington": 5811,
      "Bu": 5812,
      "fav": 5813,
      "mostly": 5814,
      "originally": 5815,
      "launched": 5816,
      "annual": 5817,
      "caused": 5818,
      "value": 5819,
      "Spe": 5820,
      "Constitution": 5821,
      "claimed": 5822,
      "ordin": 5823,
      "campus": 5824,
      "issue": 5825,
      "municip": 5826,
      "Saint": 5827,
      "widely": 5828,
      "lost": 5829,
      "concept": 5830,
      "players": 5831,
      "independence": 5832,
      "ynast": 5833,
      "ican": 5834,
      "eight": 5835,
      "past": 5836,
      "regional": 5837,
      "ibility": 5838,
      "numbers": 5839,
      "Street": 5840,
      "authority": 5841,
      "themselves": 5842,
      "tware": 5843,
      "rates": 5844,
      "ened": 5845,
      "fa": 5846,
      "publish": 5847,
      "critic": 5848,
      "fund": 5849,
      "auto": 5850,
      "Arch": 5851,
      "determin": 5852,
      "ston": 5853,
      "Australian": 5854,
      "professional": 5855,
      "mi": 5856,
      "asion": 5857,
      "units": 5858,
      "organiz": 5859,
      "super": 5860,
      "El": 5861,
      "Atlant": 5862,
      "rary": 5863,
      "division": 5864,
      "centuries": 5865,
      "Virgin": 5866,
      "below": 5867,
      "atal": 5868,
      "provin": 5869,
      "months": 5870,
      "lav": 5871,
      "Ot": 5872,
      "province": 5873,
      "ength": 5874,
      "Pacific": 5875,
      "180": 5876,
      "ictor": 5877,
      "AD": 5878,
      "suff": 5879,
      "Hall": 5880,
      "ife": 5881,
      "utes": 5882,
      "never": 5883,
      "oldest": 5884,
      "imp": 5885,
      "oms": 5886,
      "council": 5887,
      "hard": 5888,
      "thes": 5889,
      "buildings": 5890,
      "amount": 5891,
      "schol": 5892,
      "hi": 5893,
      "aval": 5894,
      "verse": 5895,
      "politan": 5896,
      "habit": 5897,
      "changed": 5898,
      "revol": 5899,
      "She": 5900,
      "iles": 5901,
      "aster": 5902,
      "Lib": 5903,
      "Revolution": 5904,
      "front": 5905,
      "comes": 5906,
      "universities": 5907,
      "cause": 5908,
      "shire": 5909,
      "Jewish": 5910,
      "signed": 5911,
      "produce": 5912,
      "leader": 5913,
      "isation": 5914,
      "multip": 5915,
      "Ira": 5916,
      "ties": 5917,
      "currently": 5918,
      "larger": 5919,
      "dialect": 5920,
      "cis": 5921,
      "Rad": 5922,
      "sold": 5923,
      "Publ": 5924,
      "Federal": 5925,
      "onom": 5926,
      "primarily": 5927,
      "books": 5928,
      "quare": 5929,
      "instead": 5930,
      "ults": 5931,
      "youn": 5932,
      "stu": 5933,
      "ded": 5934,
      "venue": 5935,
      "Bur": 5936,
      "Scotland": 5937,
      "fire": 5938,
      "Bal": 5939,
      "arri": 5940,
      "Pers": 5941,
      "brought": 5942,
      "Dist": 5943,
      "ifor": 5944,
      "responsible": 5945,
      "Iraq": 5946,
      "Scott": 5947,
      "provides": 5948,
      "affect": 5949,
      "augh": 5950,
      "added": 5951,
      "formal": 5952,
      "Califor": 5953,
      "tor": 5954,
      "went": 5955,
      "Institute": 5956,
      "Prince": 5957,
      "amb": 5958,
      "hood": 5959,
      "ournal": 5960,
      "once": 5961,
      "features": 5962,
      "Irish": 5963,
      "Its": 5964,
      "System": 5965,
      "mechan": 5966,
      "exper": 5967,
      "spir": 5968,
      "ricts": 5969,
      "personal": 5970,
      "consider": 5971,
      "Mich": 5972,
      "father": 5973,
      "Grand": 5974,
      "36": 5975,
      "acade": 5976,
      "Rich": 5977,
      "eastern": 5978,
      "SA": 5979,
      "arm": 5980,
      "vey": 5981,
      "transl": 5982,
      "issues": 5983,
      "surface": 5984,
      "ols": 5985,
      "proposed": 5986,
      "excl": 5987,
      "reser": 5988,
      "news": 5989,
      "ake": 5990,
      "cred": 5991,
      "Trans": 5992,
      "California": 5993,
      "rop": 5994,
      "industrial": 5995,
      "Du": 5996,
      "Div": 5997,
      "cele": 5998,
      "cand": 5999,
      "religion": 6000,
      "75": 6001,
      "Green": 6002,
      "airs": 6003,
      "DP": 6004,
      "dise": 6005,
      "Off": 6006,
      "speed": 6007,
      "rise": 6008,
      "largely": 6009,
      "surv": 6010,
      "45": 6011,
      "estival": 6012,
      "derived": 6013,
      "gold": 6014,
      "global": 6015,
      "birth": 6016,
      "confl": 6017,
      "1999": 6018,
      "bed": 6019,
      "Ham": 6020,
      "qual": 6021,
      "lag": 6022,
      "aland": 6023,
      "medical": 6024,
      "coun": 6025,
      "ho": 6026,
      "elections": 6027,
      "supported": 6028,
      "help": 6029,
      "troops": 6030,
      "cross": 6031,
      "ael": 6032,
      "immig": 6033,
      "integr": 6034,
      "ert": 6035,
      "contra": 6036,
      "respective": 6037,
      "sey": 6038,
      "money": 6039,
      "video": 6040,
      "vict": 6041,
      "loss": 6042,
      "istics": 6043,
      "command": 6044,
      "districts": 6045,
      "Tr": 6046,
      "serve": 6047,
      "bum": 6048,
      "Budd": 6049,
      "recorded": 6050,
      "mountain": 6051,
      "cust": 6052,
      "situ": 6053,
      "Group": 6054,
      "pon": 6055,
      "gar": 6056,
      "crim": 6057,
      "incorpor": 6058,
      "peace": 6059,
      "society": 6060,
      "officially": 6061,
      "sele": 6062,
      "Tra": 6063,
      "chief": 6064,
      "amed": 6065,
      "Victor": 6066,
      "gave": 6067,
      "Treat": 6068,
      "physical": 6069,
      "computer": 6070,
      "perial": 6071,
      "ugu": 6072,
      "Southern": 6073,
      "points": 6074,
      "Mer": 6075,
      "forced": 6076,
      "rew": 6077,
      "Battle": 6078,
      "Cap": 6079,
      "CE": 6080,
      "league": 6081,
      "mainly": 6082,
      "necess": 6083,
      "dou": 6084,
      "transfer": 6085,
      "benef": 6086,
      "If": 6087,
      "fut": 6088,
      "student": 6089,
      "Wales": 6090,
      "standing": 6091,
      "spoken": 6092,
      "Soci": 6093,
      "Georg": 6094,
      "ned": 6095,
      ",\"": 6096,
      "elements": 6097,
      "dr": 6098,
      "holds": 6099,
      "Liber": 6100,
      "eventually": 6101,
      "icult": 6102,
      "Second": 6103,
      "Sal": 6104,
      "monarch": 6105,
      "han": 6106,
      "paper": 6107,
      "thought": 6108,
      "Rail": 6109,
      "David": 6110,
      "nearly": 6111,
      "ension": 6112,
      "levels": 6113,
      "phone": 6114,
      "uk": 6115,
      "Airport": 6116,
      "Iran": 6117,
      "promo": 6118,
      "forman": 6119,
      "estic": 6120,
      "Civil": 6121,
      "32": 6122,
      "Thomas": 6123,
      "ately": 6124,
      "smaller": 6125,
      "els": 6126,
      "Miss": 6127,
      "historical": 6128,
      "formula": 6129,
      "iter": 6130,
      "zil": 6131,
      "sal": 6132,
      "thodox": 6133,
      "eval": 6134,
      "Mic": 6135,
      "stor": 6136,
      "visit": 6137,
      "software": 6138,
      "bloc": 6139,
      "ively": 6140,
      "Acade": 6141,
      "asc": 6142,
      "parties": 6143,
      "Frank": 6144,
      "address": 6145,
      "38": 6146,
      "Cy": 6147,
      "Just": 6148,
      "ynasty": 6149,
      "products": 6150,
      "Under": 6151,
      "Sm": 6152,
      "ays": 6153,
      "variety": 6154,
      "imum": 6155,
      "reached": 6156,
      "Robert": 6157,
      "jur": 6158,
      "Games": 6159,
      "operation": 6160,
      "quality": 6161,
      "White": 6162,
      "Fin": 6163,
      "Service": 6164,
      "basis": 6165,
      "examples": 6166,
      "Fol": 6167,
      "ti": 6168,
      "Another": 6169,
      "property": 6170,
      "Zealand": 6171,
      "icles": 6172,
      "prom": 6173,
      "institutions": 6174,
      "restr": 6175,
      "cretary": 6176,
      "Lord": 6177,
      "cut": 6178,
      "Dis": 6179,
      "evidence": 6180,
      "categ": 6181,
      "agricult": 6182,
      "Pat": 6183,
      "ror": 6184,
      "ields": 6185,
      "encies": 6186,
      "content": 6187,
      "Supreme": 6188,
      "marri": 6189,
      "Mary": 6190,
      "abs": 6191,
      "OS": 6192,
      "completed": 6193,
      "candid": 6194,
      "hydro": 6195,
      "plann": 6196,
      "Black": 6197,
      "vices": 6198,
      "powers": 6199,
      "chemical": 6200,
      "cou": 6201,
      "Bas": 6202,
      "graduate": 6203,
      "rig": 6204,
      "ranked": 6205,
      "create": 6206,
      "Assembly": 6207,
      "ech": 6208,
      "dy": 6209,
      "apt": 6210,
      "iment": 6211,
      "resour": 6212,
      "knowled": 6213,
      "document": 6214,
      "News": 6215,
      "purch": 6216,
      "mach": 6217,
      "don": 6218,
      "1998": 6219,
      "implement": 6220,
      "attra": 6221,
      "edition": 6222,
      "ready": 6223,
      "subsequ": 6224,
      "Olympic": 6225,
      "mitted": 6226,
      "plants": 6227,
      "aily": 6228,
      "electron": 6229,
      "Mexico": 6230,
      "prove": 6231,
      "draw": 6232,
      "believed": 6233,
      "actions": 6234,
      "headquar": 6235,
      "pha": 6236,
      "Wal": 6237,
      "approach": 6238,
      "longer": 6239,
      "assist": 6240,
      "ows": 6241,
      "Internet": 6242,
      "prec": 6243,
      "rules": 6244,
      "administrative": 6245,
      "nine": 6246,
      "clear": 6247,
      "tered": 6248,
      "declared": 6249,
      "demand": 6250,
      "nature": 6251,
      "azine": 6252,
      "climate": 6253,
      "rank": 6254,
      "portion": 6255,
      "race": 6256,
      "native": 6257,
      "parliament": 6258,
      "Sum": 6259,
      "metro": 6260,
      "Francis": 6261,
      "operations": 6262,
      "promin": 6263,
      "whether": 6264,
      "aj": 6265,
      "Art": 6266,
      "Mil": 6267,
      "Fre": 6268,
      "ands": 6269,
      "Lake": 6270,
      "length": 6271,
      "33": 6272,
      "additional": 6273,
      "stone": 6274,
      "bank": 6275,
      "ption": 6276,
      "Turk": 6277,
      "ey": 6278,
      "Portugu": 6279,
      "college": 6280,
      "PA": 6281,
      "ean": 6282,
      "earlier": 6283,
      "contract": 6284,
      "perman": 6285,
      "ville": 6286,
      "ISO": 6287,
      "conf": 6288,
      "Kar": 6289,
      "Library": 6290,
      "wall": 6291,
      "temperature": 6292,
      "killed": 6293,
      "earliest": 6294,
      "conditions": 6295,
      "CO": 6296,
      "acts": 6297,
      "prevent": 6298,
      "bin": 6299,
      "Portuguese": 6300,
      "bs": 6301,
      "nations": 6302,
      "Bank": 6303,
      "BS": 6304,
      "va": 6305,
      "\"\"": 6306,
      "consists": 6307,
      "Sha": 6308,
      "numerous": 6309,
      "regard": 6310,
      "little": 6311,
      "ga": 6312,
      "defe": 6313,
      "oph": 6314,
      "Ind": 6315,
      "involved": 6316,
      "agreement": 6317,
      "orial": 6318,
      "Navy": 6319,
      "psy": 6320,
      "icted": 6321,
      "represented": 6322,
      "Nap": 6323,
      "photo": 6324,
      "celebr": 6325,
      "contains": 6326,
      "spread": 6327,
      "ilies": 6328,
      "BBC": 6329,
      "istry": 6330,
      "remains": 6331,
      "album": 6332,
      "fri": 6333,
      "Paris": 6334,
      "scale": 6335,
      "tel": 6336,
      "oura": 6337,
      "product": 6338,
      "berg": 6339,
      "reedom": 6340,
      "performan": 6341,
      "middle": 6342,
      "Pre": 6343,
      "away": 6344,
      "Po": 6345,
      "Public": 6346,
      "Prime": 6347,
      "altern": 6348,
      "39": 6349,
      "reas": 6350,
      "uan": 6351,
      "domestic": 6352,
      "...": 6353,
      "ingu": 6354,
      "temporary": 6355,
      "sport": 6356,
      "future": 6357,
      "1980s": 6358,
      "carbon": 6359,
      "Sim": 6360,
      "dominant": 6361,
      "whom": 6362,
      "Society": 6363,
      "greater": 6364,
      "Atlantic": 6365,
      "phen": 6366,
      "usion": 6367,
      "Treaty": 6368,
      "course": 6369,
      "bridge": 6370,
      "ellow": 6371,
      "executive": 6372,
      "vation": 6373,
      "Jose": 6374,
      "administration": 6375,
      "arts": 6376,
      "abol": 6377,
      "pring": 6378,
      "District": 6379,
      "pi": 6380,
      "34": 6381,
      "Jews": 6382,
      "organizations": 6383,
      "communities": 6384,
      "Office": 6385,
      "forest": 6386,
      "ower": 6387,
      "Lin": 6388,
      "reason": 6389,
      "lived": 6390,
      "citizens": 6391,
      "oid": 6392,
      "atell": 6393,
      "aves": 6394,
      "179": 6395,
      "Net": 6396,
      "letter": 6397,
      "pressure": 6398,
      "Pan": 6399,
      "destroy": 6400,
      "newspaper": 6401,
      "Viet": 6402,
      "aim": 6403,
      "Mag": 6404,
      "igned": 6405,
      "creation": 6406,
      "phere": 6407,
      "management": 6408,
      "1990": 6409,
      "1997": 6410,
      "stream": 6411,
      "37": 6412,
      "ya": 6413,
      "lowing": 6414,
      "residents": 6415,
      "thous": 6416,
      "influenced": 6417,
      "female": 6418,
      "Gold": 6419,
      "individuals": 6420,
      "Ver": 6421,
      "too": 6422,
      "Orthodox": 6423,
      "capac": 6424,
      "security": 6425,
      "umn": 6426,
      "isms": 6427,
      "composed": 6428,
      "bey": 6429,
      "deal": 6430,
      "overe": 6431,
      "earch": 6432,
      "Otto": 6433,
      "alle": 6434,
      "Brazil": 6435,
      "ita": 6436,
      "etic": 6437,
      "equival": 6438,
      "ull": 6439,
      "competition": 6440,
      "overeign": 6441,
      "stated": 6442,
      "towards": 6443,
      "difficult": 6444,
      "itation": 6445,
      "prob": 6446,
      "fr": 6447,
      "discovered": 6448,
      "eria": 6449,
      "Committee": 6450,
      "oral": 6451,
      "atre": 6452,
      "sources": 6453,
      "concent": 6454,
      "location": 6455,
      "Ben": 6456,
      "motion": 6457,
      "Edu": 6458,
      "Sur": 6459,
      "geograph": 6460,
      "Day": 6461,
      "prior": 6462,
      "Mem": 6463,
      "blood": 6464,
      "coal": 6465,
      "ka": 6466,
      "operating": 6467,
      "Prov": 6468,
      "conserv": 6469,
      "65": 6470,
      "potential": 6471,
      "dif": 6472,
      "Bl": 6473,
      "sou": 6474,
      "dict": 6475,
      "Sir": 6476,
      "mes": 6477,
      "aring": 6478,
      "night": 6479,
      "color": 6480,
      "issued": 6481,
      "likely": 6482,
      "prison": 6483,
      "resist": 6484,
      "Columb": 6485,
      "previously": 6486,
      "Champion": 6487,
      "collection": 6488,
      "ospital": 6489,
      "writing": 6490,
      "notable": 6491,
      "juris": 6492,
      "museum": 6493,
      "ark": 6494,
      "families": 6495,
      "mir": 6496,
      "veh": 6497,
      "Ocean": 6498,
      "saf": 6499,
      "magnet": 6500,
      "measure": 6501,
      "digital": 6502,
      "section": 6503,
      "territories": 6504,
      "diction": 6505,
      "Histor": 6506,
      "workers": 6507,
      "mobile": 6508,
      "stic": 6509,
      "1996": 6510,
      "ulf": 6511,
      "Stud": 6512,
      "Force": 6513,
      "People": 6514,
      "IV": 6515,
      "give": 6516,
      "stop": 6517,
      "cells": 6518,
      "Hung": 6519,
      "rapid": 6520,
      "cere": 6521,
      "ali": 6522,
      "zon": 6523,
      "invent": 6524,
      "studies": 6525,
      "Mu": 6526,
      "trib": 6527,
      "Ob": 6528,
      "Def": 6529,
      "joined": 6530,
      "receive": 6531,
      "ij": 6532,
      "ulation": 6533,
      "fle": 6534,
      "Pak": 6535,
      "Islamic": 6536,
      "leges": 6537,
      "18th": 6538,
      "threat": 6539,
      "hours": 6540,
      "Senate": 6541,
      "Rome": 6542,
      "might": 6543,
      "Times": 6544,
      "icine": 6545,
      "Tor": 6546,
      "Radio": 6547,
      "activities": 6548,
      "marriage": 6549,
      "Scottish": 6550,
      "demon": 6551,
      "always": 6552,
      "Pope": 6553,
      "forming": 6554,
      "visions": 6555,
      "rupt": 6556,
      "ctors": 6557,
      "ysis": 6558,
      "wind": 6559,
      "sector": 6560,
      "himself": 6561,
      "appeared": 6562,
      "lie": 6563,
      "scientific": 6564,
      "Music": 6565,
      "Sto": 6566,
      "Social": 6567,
      "risk": 6568,
      "cation": 6569,
      "syl": 6570,
      "aircraft": 6571,
      "pain": 6572,
      "fif": 6573,
      "Fore": 6574,
      "kingdom": 6575,
      "tained": 6576,
      "union": 6577,
      "keep": 6578,
      "novel": 6579,
      "gg": 6580,
      "fight": 6581,
      "Protest": 6582,
      "ume": 6583,
      "300": 6584,
      "bish": 6585,
      "zo": 6586,
      "ises": 6587,
      "municipal": 6588,
      "compared": 6589,
      "Academy": 6590,
      "Metro": 6591,
      "Jes": 6592,
      "havi": 6593,
      "houses": 6594,
      "paren": 6595,
      "soldi": 6596,
      "latter": 6597,
      "achi": 6598,
      "pal": 6599,
      "64": 6600,
      "bra": 6601,
      "quant": 6602,
      "ribe": 6603,
      "employment": 6604,
      "Emperor": 6605,
      "sets": 6606,
      "recognized": 6607,
      "cting": 6608,
      "Cha": 6609,
      "definition": 6610,
      "bot": 6611,
      "purpose": 6612,
      "soon": 6613,
      "response": 6614,
      "iving": 6615,
      "rants": 6616,
      "speaking": 6617,
      "1990s": 6618,
      "1991": 6619,
      "1970s": 6620,
      "sites": 6621,
      "Following": 6622,
      "ena": 6623,
      "itude": 6624,
      "activity": 6625,
      "player": 6626,
      "champion": 6627,
      "results": 6628,
      "Secretary": 6629,
      "ention": 6630,
      "animals": 6631,
      "Fort": 6632,
      "Organ": 6633,
      "roun": 6634,
      "pron": 6635,
      "star": 6636,
      "awarded": 6637,
      "Research": 6638,
      "discuss": 6639,
      "training": 6640,
      "Virginia": 6641,
      "1920": 6642,
      "poly": 6643,
      "rag": 6644,
      "Vietnam": 6645,
      "ota": 6646,
      "decision": 6647,
      "Peter": 6648,
      "whole": 6649,
      "ques": 6650,
      "fields": 6651,
      "already": 6652,
      "interpre": 6653,
      "Pla": 6654,
      "1992": 6655,
      "Gal": 6656,
      "lying": 6657,
      "Cast": 6658,
      "Corpor": 6659,
      "mod": 6660,
      "applied": 6661,
      "operated": 6662,
      "folk": 6663,
      "gent": 6664,
      "Di": 6665,
      "igen": 6666,
      "Ba": 6667,
      "granted": 6668,
      "standards": 6669,
      "settlement": 6670,
      "Club": 6671,
      "kin": 6672,
      "rated": 6673,
      "ida": 6674,
      "satell": 6675,
      "micro": 6676,
      "equal": 6677,
      "MP": 6678,
      "mole": 6679,
      "seas": 6680,
      "resol": 6681,
      "academic": 6682,
      "classical": 6683,
      "acid": 6684,
      "poor": 6685,
      "census": 6686,
      "gency": 6687,
      "GDP": 6688,
      "48": 6689,
      "ici": 6690,
      "aving": 6691,
      "library": 6692,
      "Cur": 6693,
      "ruled": 6694,
      "expans": 6695,
      "sat": 6696,
      "fully": 6697,
      "conflict": 6698,
      "Mart": 6699,
      "ada": 6700,
      "Football": 6701,
      "ctic": 6702,
      "iences": 6703,
      "ounts": 6704,
      "users": 6705,
      "mouth": 6706,
      "ables": 6707,
      "Democratic": 6708,
      "closed": 6709,
      "Gl": 6710,
      "Health": 6711,
      "compon": 6712,
      "More": 6713,
      "Holy": 6714,
      "lling": 6715,
      "growing": 6716,
      "goal": 6717,
      "nel": 6718,
      "illa": 6719,
      "sexual": 6720,
      "Commonwealth": 6721,
      "metal": 6722,
      "improve": 6723,
      "want": 6724,
      ");": 6725,
      "combined": 6726,
      "pie": 6727,
      "Sol": 6728,
      "ras": 6729,
      "zone": 6730,
      "Stand": 6731,
      "drop": 6732,
      "mill": 6733,
      "behavi": 6734,
      "Richard": 6735,
      "1994": 6736,
      "villa": 6737,
      "idea": 6738,
      "fast": 6739,
      "controlled": 6740,
      "Conserv": 6741,
      "commission": 6742,
      "cycl": 6743,
      "contrast": 6744,
      "staff": 6745,
      "Do": 6746,
      "cas": 6747,
      "returned": 6748,
      "ees": 6749,
      "royal": 6750,
      "Columbia": 6751,
      "literature": 6752,
      "eve": 6753,
      "inner": 6754,
      "distinct": 6755,
      "Don": 6756,
      "1960s": 6757,
      "ders": 6758,
      "governments": 6759,
      "Not": 6760,
      "magazine": 6761,
      "extensive": 6762,
      "Pakistan": 6763,
      "Division": 6764,
      "Two": 6765,
      "extra": 6766,
      "178": 6767,
      "1995": 6768,
      "respond": 6769,
      "effects": 6770,
      "Of": 6771,
      "aur": 6772,
      "listed": 6773,
      "problems": 6774,
      "knowledge": 6775,
      "Bro": 6776,
      "IP": 6777,
      "ously": 6778,
      "Asian": 6779,
      "equip": 6780,
      "Free": 6781,
      "equivalent": 6782,
      "preser": 6783,
      "carry": 6784,
      "Techn": 6785,
      "My": 6786,
      "marked": 6787,
      "reduced": 6788,
      "AS": 6789,
      "izing": 6790,
      "courts": 6791,
      "plays": 6792,
      "initi": 6793,
      "ores": 6794,
      "plat": 6795,
      "hind": 6796,
      "male": 6797,
      "iron": 6798,
      "resulted": 6799,
      "leaders": 6800,
      "rent": 6801,
      "Class": 6802,
      "yl": 6803,
      "sha": 6804,
      "ape": 6805,
      "cert": 6806,
      "speech": 6807,
      "organized": 6808,
      "mathem": 6809,
      "ctr": 6810,
      "agreed": 6811,
      "bell": 6812,
      "exchange": 6813,
      "Governor": 6814,
      "Wind": 6815,
      "older": 6816,
      "deli": 6817,
      "nom": 6818,
      "%.": 6819,
      "Chief": 6820,
      "eties": 6821,
      "nuclear": 6822,
      "bud": 6823,
      "repe": 6824,
      "Os": 6825,
      "decre": 6826,
      "editor": 6827,
      "worldwide": 6828,
      "philosophy": 6829,
      "release": 6830,
      "distingu": 6831,
      "historic": 6832,
      "sus": 6833,
      "Ottoman": 6834,
      "Camp": 6835,
      "shows": 6836,
      "characters": 6837,
      "basic": 6838,
      "apers": 6839,
      "format": 6840,
      "big": 6841,
      "offer": 6842,
      "relationship": 6843,
      "functions": 6844,
      "expected": 6845,
      "Education": 6846,
      "demonstr": 6847,
      "police": 6848,
      "ems": 6849,
      "gian": 6850,
      "olf": 6851,
      "multiple": 6852,
      "occurred": 6853,
      "kings": 6854,
      "symbol": 6855,
      "rare": 6856,
      "isions": 6857,
      "concl": 6858,
      "poses": 6859,
      "mers": 6860,
      ".)": 6861,
      "resources": 6862,
      "Coast": 6863,
      "letters": 6864,
      "Eli": 6865,
      "becoming": 6866,
      "prominent": 6867,
      "summer": 6868,
      "charge": 6869,
      "CC": 6870,
      "green": 6871,
      "jun": 6872,
      "relatively": 6873,
      "better": 6874,
      "sovereign": 6875,
      "je": 6876,
      "regist": 6877,
      "films": 6878,
      "Econom": 6879,
      "cannot": 6880,
      "ado": 6881,
      "respectively": 6882,
      "custom": 6883,
      "eas": 6884,
      "highly": 6885,
      "step": 6886,
      "mother": 6887,
      "Den": 6888,
      "grees": 6889,
      "element": 6890,
      "accepted": 6891,
      "Edward": 6892,
      "mas": 6893,
      "remaining": 6894,
      "49": 6895,
      "oth": 6896,
      "revolution": 6897,
      "voc": 6898,
      "aters": 6899,
      "psych": 6900,
      "capacity": 6901,
      "provinces": 6902,
      "formula_": 6903,
      "young": 6904,
      "hund": 6905,
      "counter": 6906,
      "secondary": 6907,
      "spl": 6908,
      "earth": 6909,
      "churches": 6910,
      "Mong": 6911,
      "colonial": 6912,
      "belief": 6913,
      "mad": 6914,
      "architecture": 6915,
      "towns": 6916,
      "ceremon": 6917,
      "iana": 6918,
      "ivity": 6919,
      "soldiers": 6920,
      "Univers": 6921,
      "icated": 6922,
      "inhabit": 6923,
      "Jo": 6924,
      "aging": 6925,
      "reference": 6926,
      "hit": 6927,
      "degrees": 6928,
      "defeated": 6929,
      "methods": 6930,
      "Jud": 6931,
      "Found": 6932,
      "forts": 6933,
      "places": 6934,
      "Poland": 6935,
      "Mountain": 6936,
      "alpha": 6937,
      "emph": 6938,
      "happ": 6939,
      "Nether": 6940,
      "demo": 6941,
      "ald": 6942,
      "opposed": 6943,
      "supply": 6944,
      "atom": 6945,
      "immedi": 6946,
      "conver": 6947,
      "Mont": 6948,
      "allows": 6949,
      "ils": 6950,
      "taking": 6951,
      "belong": 6952,
      "ider": 6953,
      "therefore": 6954,
      "Human": 6955,
      "headquarters": 6956,
      "Pruss": 6957,
      "load": 6958,
      "Pen": 6959,
      "gun": 6960,
      "decided": 6961,
      "resulting": 6962,
      "Bill": 6963,
      "counties": 6964,
      "distribution": 6965,
      "Land": 6966,
      "opposition": 6967,
      "disease": 6968,
      "ini": 6969,
      "empire": 6970,
      "Bec": 6971,
      "uls": 6972,
      "metropolitan": 6973,
      "expanded": 6974,
      "bat": 6975,
      "Polish": 6976,
      "ua": 6977,
      "Up": 6978,
      "FI": 6979,
      "flag": 6980,
      "worth": 6981,
      "carried": 6982,
      "llig": 6983,
      "Hindu": 6984,
      "performance": 6985,
      "fare": 6986,
      "Stat": 6987,
      "bul": 6988,
      "onto": 6989,
      "Cr": 6990,
      "institution": 6991,
      "Rh": 6992,
      "heav": 6993,
      "passeng": 6994,
      "formerly": 6995,
      "fourth": 6996,
      "Tex": 6997,
      "vow": 6998,
      "brother": 6999,
      "identified": 7000,
      "Carol": 7001,
      "internal": 7002,
      "ML": 7003,
      "pet": 7004,
      "Board": 7005,
      "dynasty": 7006,
      "discip": 7007,
      "joint": 7008,
      "Leg": 7009,
      "onic": 7010,
      "expansion": 7011,
      "ES": 7012,
      "path": 7013,
      "park": 7014,
      "performed": 7015,
      "Armen": 7016,
      "possess": 7017,
      "400": 7018,
      "Stadium": 7019,
      "quick": 7020,
      "mis": 7021,
      "battle": 7022,
      "controvers": 7023,
      "reng": 7024,
      "Ho": 7025,
      "artists": 7026,
      "Haw": 7027,
      "Del": 7028,
      "problem": 7029,
      "relations": 7030,
      "chester": 7031,
      "Corporation": 7032,
      "running": 7033,
      "47": 7034,
      "Arabic": 7035,
      "Tri": 7036,
      "150": 7037,
      "online": 7038,
      "simply": 7039,
      "itage": 7040,
      "stage": 7041,
      "Sever": 7042,
      "dim": 7043,
      "igation": 7044,
      "divisions": 7045,
      "Conference": 7046,
      "airport": 7047,
      "occupied": 7048,
      "Over": 7049,
      "onia": 7050,
      "distance": 7051,
      "journal": 7052,
      "seats": 7053,
      "Bet": 7054,
      "aspe": 7055,
      "ola": 7056,
      "analysis": 7057,
      "atures": 7058,
      "box": 7059,
      "nar": 7060,
      "rising": 7061,
      "Mos": 7062,
      "paid": 7063,
      "communications": 7064,
      "Michael": 7065,
      "neighbor": 7066,
      "AF": 7067,
      "1945": 7068,
      "progress": 7069,
      "Because": 7070,
      "fuel": 7071,
      "Netherlands": 7072,
      "recently": 7073,
      "99": 7074,
      "gel": 7075,
      "Korea": 7076,
      "Each": 7077,
      "seat": 7078,
      "behind": 7079,
      "officers": 7080,
      "argued": 7081,
      "1993": 7082,
      "iting": 7083,
      "heavy": 7084,
      "emphas": 7085,
      "55": 7086,
      "aps": 7087,
      "Both": 7088,
      "reject": 7089,
      "rot": 7090,
      "refers": 7091,
      "presence": 7092,
      "Georgia": 7093,
      "suit": 7094,
      "insur": 7095,
      "job": 7096,
      "stein": 7097,
      "Post": 7098,
      "acquired": 7099,
      "poll": 7100,
      "streng": 7101,
      "gained": 7102,
      "believe": 7103,
      "42": 7104,
      "max": 7105,
      "Mass": 7106,
      "table": 7107,
      "existing": 7108,
      "Valley": 7109,
      "continue": 7110,
      "modif": 7111,
      "pun": 7112,
      "extended": 7113,
      "republic": 7114,
      "raised": 7115,
      "sl": 7116,
      "bring": 7117,
      "Science": 7118,
      "vary": 7119,
      "applications": 7120,
      "compound": 7121,
      "Also": 7122,
      "playing": 7123,
      "article": 7124,
      "governor": 7125,
      "describe": 7126,
      "Dire": 7127,
      "sens": 7128,
      "track": 7129,
      "freedom": 7130,
      "Joseph": 7131,
      "story": 7132,
      "But": 7133,
      "facilities": 7134,
      "mn": 7135,
      "reli": 7136,
      "Oper": 7137,
      "Arts": 7138,
      "connected": 7139,
      "oft": 7140,
      "offered": 7141,
      "ography": 7142,
      "renamed": 7143,
      "sense": 7144,
      "electr": 7145,
      "engineering": 7146,
      "pattern": 7147,
      "cru": 7148,
      "1989": 7149,
      "lers": 7150,
      "price": 7151,
      "materials": 7152,
      "question": 7153,
      "consum": 7154,
      "grew": 7155,
      "erson": 7156,
      "AC": 7157,
      "ker": 7158,
      "minister": 7159,
      "stain": 7160,
      "Mel": 7161,
      "ams": 7162,
      "Ru": 7163,
      "bomb": 7164,
      "Sub": 7165,
      "texts": 7166,
      "mention": 7167,
      "initial": 7168,
      "traffic": 7169,
      "Che": 7170,
      "insula": 7171,
      "covery": 7172,
      "brew": 7173,
      "ensity": 7174,
      "stra": 7175,
      "extreme": 7176,
      "surroun": 7177,
      "rant": 7178,
      "review": 7179,
      "Bus": 7180,
      "brand": 7181,
      "wise": 7182,
      "upper": 7183,
      "records": 7184,
      "legislation": 7185,
      "arms": 7186,
      "iff": 7187,
      "km": 7188,
      "constructed": 7189,
      "alternative": 7190,
      "clubs": 7191,
      "daily": 7192,
      "ogle": 7193,
      "Chic": 7194,
      "AT": 7195,
      "unique": 7196,
      "necessary": 7197,
      "mut": 7198,
      "railway": 7199,
      "square": 7200,
      "dex": 7201,
      "incorporated": 7202,
      "matter": 7203,
      "policies": 7204,
      "noted": 7205,
      "thesis": 7206,
      "da": 7207,
      "hosted": 7208,
      "copy": 7209,
      "44": 7210,
      "85": 7211,
      "ureau": 7212,
      "dol": 7213,
      "17th": 7214,
      "iber": 7215,
      "permanent": 7216,
      "vin": 7217,
      "autonom": 7218,
      "image": 7219,
      "oti": 7220,
      "Texas": 7221,
      "Ox": 7222,
      "pression": 7223,
      "initially": 7224,
      "Tod": 7225,
      "musical": 7226,
      "Republican": 7227,
      "Napole": 7228,
      "magnetic": 7229,
      "intended": 7230,
      "constitutional": 7231,
      "stock": 7232,
      "Elect": 7233,
      "lap": 7234,
      "Ag": 7235,
      "Age": 7236,
      "oman": 7237,
      "speakers": 7238,
      "encoura": 7239,
      "Ha": 7240,
      "?$": 7241,
      "Festival": 7242,
      "done": 7243,
      "dram": 7244,
      "rural": 7245,
      "proto": 7246,
      "reduce": 7247,
      "ee": 7248,
      "Smith": 7249,
      "sun": 7250,
      "structures": 7251,
      "focus": 7252,
      "Han": 7253,
      "tournam": 7254,
      "spirit": 7255,
      "meeting": 7256,
      "thed": 7257,
      "shown": 7258,
      "dipl": 7259,
      "formally": 7260,
      "Google": 7261,
      "Despite": 7262,
      "communication": 7263,
      "employed": 7264,
      "cry": 7265,
      "bodies": 7266,
      "Sax": 7267,
      "chos": 7268,
      "circ": 7269,
      "ridge": 7270,
      "Centre": 7271,
      "ceeded": 7272,
      "Hill": 7273,
      "corre": 7274,
      "EU": 7275,
      "Jersey": 7276,
      "Ty": 7277,
      "commit": 7278,
      "experience": 7279,
      "Alexander": 7280,
      "exer": 7281,
      "thir": 7282,
      "ieve": 7283,
      "Ele": 7284,
      "los": 7285,
      "Super": 7286,
      "vast": 7287,
      "Sing": 7288,
      "winter": 7289,
      "borough": 7290,
      "protection": 7291,
      "oples": 7292,
      "tu": 7293,
      "Greece": 7294,
      "true": 7295,
      "Develop": 7296,
      "detail": 7297,
      "Naz": 7298,
      "remo": 7299,
      "uer": 7300,
      "Uk": 7301,
      "nes": 7302,
      "Star": 7303,
      "rea": 7304,
      "Fer": 7305,
      "drug": 7306,
      "rev": 7307,
      "positions": 7308,
      "Protestant": 7309,
      "marine": 7310,
      "runs": 7311,
      "settled": 7312,
      "SS": 7313,
      "dio": 7314,
      "reign": 7315,
      "Confed": 7316,
      "failed": 7317,
      "split": 7318,
      "depart": 7319,
      "ager": 7320,
      "Mah": 7321,
      "programming": 7322,
      "Territ": 7323,
      "Persian": 7324,
      "blue": 7325,
      "fell": 7326,
      "nd": 7327,
      "lab": 7328,
      "Cro": 7329,
      "ani": 7330,
      "weight": 7331,
      "Among": 7332,
      "dance": 7333,
      "objects": 7334,
      "eds": 7335,
      "ki": 7336,
      "mental": 7337,
      "providing": 7338,
      "entered": 7339,
      "Road": 7340,
      "Olympics": 7341,
      "ID": 7342,
      "Time": 7343,
      "inhabitants": 7344,
      "makes": 7345,
      "Recor": 7346,
      "voted": 7347,
      "lu": 7348,
      "dependent": 7349,
      "Victoria": 7350,
      "IT": 7351,
      "core": 7352,
      "tend": 7353,
      "decades": 7354,
      "Main": 7355,
      "pel": 7356,
      "developing": 7357,
      "Duke": 7358,
      "advant": 7359,
      "authorities": 7360,
      "weap": 7361,
      "tin": 7362,
      "lies": 7363,
      "alleg": 7364,
      "Security": 7365,
      "icial": 7366,
      "177": 7367,
      "roll": 7368,
      "surrounding": 7369,
      "Flor": 7370,
      "application": 7371,
      "subs": 7372,
      "overall": 7373,
      "cod": 7374,
      "efforts": 7375,
      "scholars": 7376,
      "tur": 7377,
      "titles": 7378,
      "treatment": 7379,
      "recomm": 7380,
      "Justice": 7381,
      "CD": 7382,
      "exhib": 7383,
      "specif": 7384,
      "slaves": 7385,
      "Station": 7386,
      "Slo": 7387,
      "networks": 7388,
      "classified": 7389,
      "burgh": 7390,
      "95": 7391,
      "devices": 7392,
      "mess": 7393,
      "firm": 7394,
      "Windows": 7395,
      "Palest": 7396,
      "mathemat": 7397,
      "treaty": 7398,
      "aled": 7399,
      "Chicago": 7400,
      "uded": 7401,
      "direction": 7402,
      "Cub": 7403,
      "Year": 7404,
      "sales": 7405,
      "?\"": 7406,
      "plans": 7407,
      "peak": 7408,
      "impact": 7409,
      "existence": 7410,
      "install": 7411,
      "Broad": 7412,
      "Ange": 7413,
      "gender": 7414,
      "factors": 7415,
      "simple": 7416,
      "etary": 7417,
      "environmental": 7418,
      "invasion": 7419,
      "Several": 7420,
      "render": 7421,
      "Loc": 7422,
      "dut": 7423,
      "approved": 7424,
      "Sweden": 7425,
      "\";": 7426,
      "shif": 7427,
      "Hispan": 7428,
      "1980": 7429,
      "helped": 7430,
      "captured": 7431,
      "grand": 7432,
      "essential": 7433,
      "humans": 7434,
      "mix": 7435,
      "Rights": 7436,
      "replace": 7437,
      "tru": 7438,
      "properties": 7439,
      "imal": 7440,
      "sole": 7441,
      "()": 7442,
      "wan": 7443,
      "Tai": 7444,
      "MS": 7445,
      "Christianity": 7446,
      "BA": 7447,
      "officials": 7448,
      "calcul": 7449,
      "Wel": 7450,
      "conqu": 7451,
      "liberal": 7452,
      "satellite": 7453,
      "uni": 7454,
      "worked": 7455,
      "Ven": 7456,
      "heart": 7457,
      "IA": 7458,
      "Fil": 7459,
      "presents": 7460,
      "married": 7461,
      "negoti": 7462,
      "unity": 7463,
      "Mi": 7464,
      "alk": 7465,
      "gal": 7466,
      "needed": 7467,
      "omer": 7468,
      "compar": 7469,
      "god": 7470,
      "shall": 7471,
      "burn": 7472,
      "Convention": 7473,
      "Muslims": 7474,
      "friend": 7475,
      "die": 7476,
      "flo": 7477,
      "ses": 7478,
      "cracy": 7479,
      "norm": 7480,
      "purposes": 7481,
      "inj": 7482,
      "chall": 7483,
      "regarded": 7484,
      "CP": 7485,
      "wave": 7486,
      "advert": 7487,
      "protest": 7488,
      "minority": 7489,
      "1974": 7490,
      "prefer": 7491,
      "enough": 7492,
      "Gra": 7493,
      "aran": 7494,
      "prime": 7495,
      "Hor": 7496,
      "mel": 7497,
      "uge": 7498,
      "1975": 7499,
      "orders": 7500,
      "diplom": 7501,
      "expla": 7502,
      "Mount": 7503,
      "indigen": 7504,
      "operate": 7505,
      "destroyed": 7506,
      "Today": 7507,
      "build": 7508,
      "user": 7509,
      "enty": 7510,
      "observ": 7511,
      "edy": 7512,
      "frame": 7513,
      "prop": 7514,
      "leadership": 7515,
      "Far": 7516,
      "designated": 7517,
      "winning": 7518,
      "takes": 7519,
      "indigenous": 7520,
      "Bul": 7521,
      "deep": 7522,
      "presidential": 7523,
      "weak": 7524,
      "Ke": 7525,
      "profit": 7526,
      "tery": 7527,
      "bri": 7528,
      "greg": 7529,
      "partn": 7530,
      "Pres": 7531,
      "despite": 7532,
      "operates": 7533,
      "starting": 7534,
      "claims": 7535,
      "Modern": 7536,
      "master": 7537,
      "achieve": 7538,
      "allowing": 7539,
      "ador": 7540,
      "Native": 7541,
      "write": 7542,
      "attend": 7543,
      "Gulf": 7544,
      "limit": 7545,
      "46": 7546,
      "orient": 7547,
      "stitu": 7548,
      "reform": 7549,
      "stadium": 7550,
      "suggested": 7551,
      "ancy": 7552,
      "inher": 7553,
      "16th": 7554,
      "goods": 7555,
      "department": 7556,
      "anced": 7557,
      "notably": 7558,
      "Play": 7559,
      "RC": 7560,
      "Cle": 7561,
      "giving": 7562,
      "inet": 7563,
      "Rock": 7564,
      "peoples": 7565,
      "propos": 7566,
      "Bor": 7567,
      "dissol": 7568,
      "roads": 7569,
      "phy": 7570,
      "beth": 7571,
      "conducted": 7572,
      "1970": 7573,
      "ulated": 7574,
      "ockey": 7575,
      "normal": 7576,
      "Thus": 7577,
      "Bush": 7578,
      "Austria": 7579,
      "recording": 7580,
      "Long": 7581,
      "colonies": 7582,
      "quickly": 7583,
      "ardi": 7584,
      "Hy": 7585,
      "budget": 7586,
      "alty": 7587,
      "dates": 7588,
      "wife": 7589,
      "cable": 7590,
      "mann": 7591,
      "athlet": 7592,
      "Major": 7593,
      "valu": 7594,
      "survey": 7595,
      "trop": 7596,
      "hism": 7597,
      "clo": 7598,
      "bes": 7599,
      "colleges": 7600,
      "Bang": 7601,
      "Lan": 7602,
      "investment": 7603,
      "figures": 7604,
      "exclus": 7605,
      "san": 7606,
      "divers": 7607,
      "1979": 7608,
      "Vol": 7609,
      "ocean": 7610,
      "ba": 7611,
      "find": 7612,
      "Their": 7613,
      "roughly": 7614,
      "1986": 7615,
      "double": 7616,
      "och": 7617,
      "Bir": 7618,
      "anta": 7619,
      "rd": 7620,
      "determined": 7621,
      "substant": 7622,
      "66": 7623,
      "Mongol": 7624,
      "preced": 7625,
      "bean": 7626,
      "cycle": 7627,
      "effective": 7628,
      "Dan": 7629,
      "Bow": 7630,
      "label": 7631,
      "Book": 7632,
      "mixed": 7633,
      "Turkish": 7634,
      "attacks": 7635,
      "electro": 7636,
      "%,": 7637,
      "ternal": 7638,
      "Town": 7639,
      "establishment": 7640,
      "din": 7641,
      "Development": 7642,
      "Ti": 7643,
      "anda": 7644,
      "scre": 7645,
      "Imperial": 7646,
      "iques": 7647,
      "affili": 7648,
      "phon": 7649,
      "here": 7650,
      "Four": 7651,
      "ero": 7652,
      "negative": 7653,
      "importance": 7654,
      "Jesus": 7655,
      "tribes": 7656,
      "classes": 7657,
      "votes": 7658,
      "Penn": 7659,
      "ricket": 7660,
      "serves": 7661,
      "award": 7662,
      "mail": 7663,
      "cam": 7664,
      "projects": 7665,
      "frequently": 7666,
      "bill": 7667,
      "heat": 7668,
      "Administ": 7669,
      "cles": 7670,
      "presented": 7671,
      "armed": 7672,
      "ont": 7673,
      "values": 7674,
      "switch": 7675,
      "motor": 7676,
      "Florida": 7677,
      "UC": 7678,
      "ogy": 7679,
      "spons": 7680,
      "cot": 7681,
      "equipment": 7682,
      "animal": 7683,
      "Eth": 7684,
      "request": 7685,
      "merged": 7686,
      "Cre": 7687,
      "lligence": 7688,
      "nob": 7689,
      "neut": 7690,
      "Crown": 7691,
      "Oxford": 7692,
      "etc": 7693,
      "offices": 7694,
      "loy": 7695,
      "fair": 7696,
      "quarter": 7697,
      "favor": 7698,
      "Es": 7699,
      "instance": 7700,
      "principal": 7701,
      "conce": 7702,
      "probably": 7703,
      "Eliza": 7704,
      "endar": 7705,
      "licens": 7706,
      "volun": 7707,
      "ideas": 7708,
      "Later": 7709,
      "stries": 7710,
      "1988": 7711,
      "mur": 7712,
      "traditions": 7713,
      "consu": 7714,
      "alg": 7715,
      "tran": 7716,
      "yet": 7717,
      "plies": 7718,
      "chair": 7719,
      "cos": 7720,
      "Swedish": 7721,
      "hun": 7722,
      "Order": 7723,
      "you": 7724,
      "kind": 7725,
      "debt": 7726,
      "Br": 7727,
      "identity": 7728,
      "slow": 7729,
      "1972": 7730,
      "senior": 7731,
      "Community": 7732,
      "beyond": 7733,
      "ios": 7734,
      "adopt": 7735,
      "inian": 7736,
      "Web": 7737,
      "thedral": 7738,
      "populations": 7739,
      "medieval": 7740,
      "MA": 7741,
      "dominated": 7742,
      "thr": 7743,
      "officer": 7744,
      "affected": 7745,
      "usage": 7746,
      "Berlin": 7747,
      "Nic": 7748,
      "featured": 7749,
      "dialects": 7750,
      "semi": 7751,
      "Indo": 7752,
      "tainment": 7753,
      "fect": 7754,
      "philosoph": 7755,
      "oxy": 7756,
      "Carib": 7757,
      "rival": 7758,
      "decline": 7759,
      "eme": 7760,
      "Plan": 7761,
      "figure": 7762,
      "victory": 7763,
      "ening": 7764,
      "oul": 7765,
      "opport": 7766,
      "occurs": 7767,
      "mol": 7768,
      "try": 7769,
      "BCE": 7770,
      "fixed": 7771,
      "contemporary": 7772,
      "difference": 7773,
      "holding": 7774,
      "identify": 7775,
      "generation": 7776,
      "grade": 7777,
      "vised": 7778,
      "Bost": 7779,
      "removed": 7780,
      "planned": 7781,
      "hum": 7782,
      "bute": 7783,
      "lig": 7784,
      "DNA": 7785,
      "amin": 7786,
      "Bol": 7787,
      "astron": 7788,
      "ician": 7789,
      "ishing": 7790,
      "izes": 7791,
      "elig": 7792,
      "oration": 7793,
      "ario": 7794,
      "closely": 7795,
      "Ur": 7796,
      "oxide": 7797,
      "Media": 7798,
      "Fur": 7799,
      "iers": 7800,
      "Johnson": 7801,
      "ensions": 7802,
      "website": 7803,
      "hop": 7804,
      "pool": 7805,
      "iled": 7806,
      "finally": 7807,
      "wing": 7808,
      "block": 7809,
      "ament": 7810,
      "68": 7811,
      "icy": 7812,
      "publication": 7813,
      "alphabet": 7814,
      "1982": 7815,
      "1950s": 7816,
      "poet": 7817,
      "increasingly": 7818,
      "Ice": 7819,
      "agan": 7820,
      "opening": 7821,
      "Tour": 7822,
      "wear": 7823,
      "Dar": 7824,
      "Sil": 7825,
      "ads": 7826,
      "Slav": 7827,
      "newly": 7828,
      "kil": 7829,
      "Boston": 7830,
      "Bos": 7831,
      "nav": 7832,
      "enna": 7833,
      "Author": 7834,
      "stress": 7835,
      "IC": 7836,
      "creating": 7837,
      "route": 7838,
      "Railway": 7839,
      "Network": 7840,
      "technical": 7841,
      "bad": 7842,
      "Championship": 7843,
      "Jeff": 7844,
      "shor": 7845,
      "Byz": 7846,
      "Hawai": 7847,
      "specifically": 7848,
      "prohib": 7849,
      "sched": 7850,
      "AN": 7851,
      "jurisdiction": 7852,
      "elim": 7853,
      "assu": 7854,
      "58": 7855,
      "effort": 7856,
      "advoc": 7857,
      "secut": 7858,
      "isis": 7859,
      "politics": 7860,
      "mort": 7861,
      "uters": 7862,
      "defeat": 7863,
      "causes": 7864,
      "43": 7865,
      "dated": 7866,
      "virt": 7867,
      "condition": 7868,
      "dete": 7869,
      "USA": 7870,
      "bishop": 7871,
      "hot": 7872,
      "zy": 7873,
      "immigrants": 7874,
      "ware": 7875,
      "persons": 7876,
      "600": 7877,
      "tun": 7878,
      "map": 7879,
      "ione": 7880,
      "Byzant": 7881,
      "lingu": 7882,
      "maintained": 7883,
      "Napoleon": 7884,
      "pack": 7885,
      "Channel": 7886,
      "practices": 7887,
      "turned": 7888,
      "serving": 7889,
      "Christians": 7890,
      "sequence": 7891,
      "Foundation": 7892,
      "reasons": 7893,
      "positive": 7894,
      "opin": 7895,
      "atest": 7896,
      "%)": 7897,
      "ranean": 7898,
      "sail": 7899,
      "sky": 7900,
      "1960": 7901,
      "Tem": 7902,
      "join": 7903,
      "Cla": 7904,
      "pitch": 7905,
      "alone": 7906,
      "Ann": 7907,
      "Egyptian": 7908,
      "overty": 7909,
      "Test": 7910,
      "resh": 7911,
      "ansas": 7912,
      "Records": 7913,
      "ami": 7914,
      "differences": 7915,
      "1973": 7916,
      "Buil": 7917,
      "contact": 7918,
      "agency": 7919,
      "rivers": 7920,
      "Philipp": 7921,
      "faith": 7922,
      "mode": 7923,
      "density": 7924,
      "Prof": 7925,
      "Brown": 7926,
      "aration": 7927,
      "lac": 7928,
      "\"-": 7929,
      "chron": 7930,
      "serious": 7931,
      "Bah": 7932,
      "67": 7933,
      "woman": 7934,
      "analy": 7935,
      "iang": 7936,
      "honor": 7937,
      "atmos": 7938,
      "Hebrew": 7939,
      "1948": 7940,
      "costs": 7941,
      "association": 7942,
      "800": 7943,
      "Beng": 7944,
      "attribut": 7945,
      "wides": 7946,
      "1984": 7947,
      "Glo": 7948,
      "kers": 7949,
      "Los": 7950,
      "1947": 7951,
      "Korean": 7952,
      "Jul": 7953,
      "Ku": 7954,
      "1976": 7955,
      "bury": 7956,
      "Lad": 7957,
      "OC": 7958,
      "ano": 7959,
      "ati": 7960,
      "membership": 7961,
      "chain": 7962,
      "resistance": 7963,
      "Tun": 7964,
      "emerged": 7965,
      "songs": 7966,
      "Indu": 7967,
      "ologies": 7968,
      "refle": 7969,
      "ibly": 7970,
      "infra": 7971,
      "sac": 7972,
      "Open": 7973,
      "agricultural": 7974,
      "Labour": 7975,
      "sustain": 7976,
      "1967": 7977,
      "Bern": 7978,
      "organisms": 7979,
      "subsid": 7980,
      "iti": 7981,
      "maximum": 7982,
      "arrived": 7983,
      "1983": 7984,
      "Gard": 7985,
      "colony": 7986,
      "achieved": 7987,
      "Series": 7988,
      "Mat": 7989,
      "Elizabeth": 7990,
      "severe": 7991,
      "educational": 7992,
      "foot": 7993,
      "Sar": 7994,
      "competit": 7995,
      "PC": 7996,
      "writers": 7997,
      "invented": 7998,
      "ni": 7999,
      "restrict": 8000,
      "iterranean": 8001,
      "itzer": 8002,
      "Oh": 8003,
      "Martin": 8004,
      "completely": 8005,
      "nut": 8006,
      "else": 8007,
      "orb": 8008,
      "processes": 8009,
      "1949": 8010,
      "Germanic": 8011,
      "perform": 8012,
      "visited": 8013,
      "dedicated": 8014,
      "channels": 8015,
      "Max": 8016,
      "stood": 8017,
      "constitu": 8018,
      "Nobel": 8019,
      "crime": 8020,
      "techniques": 8021,
      "housing": 8022,
      "subsequently": 8023,
      "cro": 8024,
      "volume": 8025,
      "crisis": 8026,
      "chlor": 8027,
      "aband": 8028,
      "accur": 8029,
      "41": 8030,
      "liqu": 8031,
      "pher": 8032,
      "Sports": 8033,
      "sels": 8034,
      "frequency": 8035,
      "Micros": 8036,
      "models": 8037,
      "1987": 8038,
      "views": 8039,
      "Jacks": 8040,
      "lowest": 8041,
      "thousands": 8042,
      "ancell": 8043,
      "downtown": 8044,
      "ym": 8045,
      "device": 8046,
      "1969": 8047,
      "combination": 8048,
      "Serb": 8049,
      "wee": 8050,
      "employees": 8051,
      "Prize": 8052,
      "ween": 8053,
      "Fl": 8054,
      "Pl": 8055,
      "Program": 8056,
      "akes": 8057,
      "coastal": 8058,
      "trading": 8059,
      "street": 8060,
      "protect": 8061,
      "dollar": 8062,
      "voting": 8063,
      "Summer": 8064,
      "inity": 8065,
      "wild": 8066,
      "moving": 8067,
      "candidate": 8068,
      "kill": 8069,
      "Between": 8070,
      "annually": 8071,
      "electronic": 8072,
      "look": 8073,
      "powerful": 8074,
      "citizen": 8075,
      "dry": 8076,
      "card": 8077,
      "1939": 8078,
      "Hon": 8079,
      "Mediterranean": 8080,
      "auth": 8081,
      "1968": 8082,
      "Hel": 8083,
      "aria": 8084,
      "TO": 8085,
      "mier": 8086,
      "spring": 8087,
      "constant": 8088,
      "opol": 8089,
      "widespread": 8090,
      "traditionally": 8091,
      "FL": 8092,
      "violence": 8093,
      "funding": 8094,
      "abandon": 8095,
      "Fire": 8096,
      "shared": 8097,
      "Caribbean": 8098,
      "1900": 8099,
      "actually": 8100,
      "Lor": 8101,
      "documents": 8102,
      "ached": 8103,
      "reports": 8104,
      "PS": 8105,
      "teenth": 8106,
      "expressed": 8107,
      "Cel": 8108,
      "Microsoft": 8109,
      "Jackson": 8110,
      "1985": 8111,
      "1971": 8112,
      "Census": 8113,
      "joy": 8114,
      "dynam": 8115,
      "Ken": 8116,
      "von": 8117,
      "taxes": 8118,
      "Police": 8119,
      "signal": 8120,
      "manufacturing": 8121,
      "continental": 8122,
      "Palace": 8123,
      "Bre": 8124,
      "Kh": 8125,
      "Wall": 8126,
      "Organization": 8127,
      "oxygen": 8128,
      "abinet": 8129,
      "whereas": 8130,
      "That": 8131,
      "bands": 8132,
      "fifth": 8133,
      "adel": 8134,
      "1978": 8135,
      "director": 8136,
      "significantly": 8137,
      "dead": 8138,
      "cession": 8139,
      "daugh": 8140,
      "dic": 8141,
      "arent": 8142,
      "ugal": 8143,
      "uten": 8144,
      "revenue": 8145,
      "stable": 8146,
      "Sat": 8147,
      "issip": 8148,
      "Lith": 8149,
      "sought": 8150,
      "batt": 8151,
      "vit": 8152,
      "1st": 8153,
      "tropical": 8154,
      "minutes": 8155,
      "Ash": 8156,
      "tes": 8157,
      "Domin": 8158,
      "iments": 8159,
      "usal": 8160,
      "ava": 8161,
      "aught": 8162,
      "infl": 8163,
      "ogue": 8164,
      "venues": 8165,
      "ode": 8166,
      "carri": 8167,
      "ishes": 8168,
      "ordered": 8169,
      "banks": 8170,
      "glass": 8171,
      "households": 8172,
      "wel": 8173,
      "enforce": 8174,
      "aste": 8175,
      "velt": 8176,
      "Freder": 8177,
      "sam": 8178,
      "dat": 8179,
      "Warner": 8180,
      "Roose": 8181,
      "kee": 8182,
      "offers": 8183,
      "scholar": 8184,
      "typical": 8185,
      "Mur": 8186,
      "ille": 8187,
      "room": 8188,
      "principle": 8189,
      "attempted": 8190,
      "78": 8191,
      "mayor": 8192,
      "managed": 8193,
      "uck": 8194,
      "akh": 8195,
      "Sa": 8196,
      "Mot": 8197,
      "Gar": 8198,
      "Ep": 8199,
      "Roosevelt": 8200,
      "Hit": 8201,
      "unds": 8202,
      "toward": 8203,
      "Water": 8204,
      "fra": 8205,
      "Add": 8206,
      "Puer": 8207,
      "amber": 8208,
      "Por": 8209,
      "Communist": 8210,
      "fficient": 8211,
      "Mississip": 8212,
      "proced": 8213,
      "patent": 8214,
      "accom": 8215,
      "damage": 8216,
      "Engine": 8217,
      "coordin": 8218,
      "meant": 8219,
      "deliver": 8220,
      "Big": 8221,
      "train": 8222,
      "slight": 8223,
      "wer": 8224,
      "conference": 8225,
      "agencies": 8226,
      "ghan": 8227,
      "classification": 8228,
      "going": 8229,
      "Manchester": 8230,
      "mentioned": 8231,
      "Lit": 8232,
      "oppos": 8233,
      "requires": 8234,
      "medicine": 8235,
      "AM": 8236,
      "1965": 8237,
      "Maced": 8238,
      "strateg": 8239,
      "nucle": 8240,
      "1964": 8241,
      "tested": 8242,
      "brief": 8243,
      "Before": 8244,
      "ounder": 8245,
      "1950": 8246,
      "naval": 8247,
      "hosts": 8248,
      "Blue": 8249,
      "ipe": 8250,
      "theore": 8251,
      "imperial": 8252,
      "ulty": 8253,
      "Som": 8254,
      "Constant": 8255,
      "showed": 8256,
      "inton": 8257,
      "endment": 8258,
      "nearby": 8259,
      "consisting": 8260,
      "aded": 8261,
      "Theatre": 8262,
      "situation": 8263,
      "feed": 8264,
      "buy": 8265,
      "Er": 8266,
      "annex": 8267,
      "ule": 8268,
      "cultures": 8269,
      "insurance": 8270,
      "represents": 8271,
      "determ": 8272,
      "chosen": 8273,
      "determine": 8274,
      "poverty": 8275,
      "avoid": 8276,
      "Anglo": 8277,
      "Apple": 8278,
      "kept": 8279,
      "heavily": 8280,
      "agriculture": 8281,
      "Life": 8282,
      "comment": 8283,
      "criminal": 8284,
      "',": 8285,
      "oes": 8286,
      "acted": 8287,
      "versions": 8288,
      "appears": 8289,
      "Puerto": 8290,
      "exerc": 8291,
      "Corn": 8292,
      "iced": 8293,
      "Three": 8294,
      "Forces": 8295,
      "Indones": 8296,
      "tournament": 8297,
      "Gall": 8298,
      "anth": 8299,
      "door": 8300,
      "NBC": 8301,
      "subsequent": 8302,
      "Medical": 8303,
      "udes": 8304,
      "Dev": 8305,
      "Commons": 8306,
      "refuge": 8307,
      "Further": 8308,
      "noun": 8309,
      "secret": 8310,
      "committee": 8311,
      "Standard": 8312,
      "Dr": 8313,
      "Ve": 8314,
      "legislative": 8315,
      "bass": 8316,
      "reve": 8317,
      "aker": 8318,
      "succeeded": 8319,
      "1981": 8320,
      "phr": 8321,
      "oo": 8322,
      "rick": 8323,
      "AR": 8324,
      "continent": 8325,
      "gers": 8326,
      "fighting": 8327,
      "rejected": 8328,
      "Early": 8329,
      "normally": 8330,
      "azz": 8331,
      "founding": 8332,
      "leaving": 8333,
      "Building": 8334,
      "nomin": 8335,
      "depending": 8336,
      "containing": 8337,
      "marks": 8338,
      "ounce": 8339,
      "Carolina": 8340,
      "immediately": 8341,
      "Tom": 8342,
      "zh": 8343,
      "leave": 8344,
      "Cze": 8345,
      "continues": 8346,
      "selected": 8347,
      "Ul": 8348,
      "literary": 8349,
      "linked": 8350,
      "Mill": 8351,
      "Portugal": 8352,
      "98": 8353,
      "%),": 8354,
      "calendar": 8355,
      "ji": 8356,
      "hall": 8357,
      "markets": 8358,
      "neighbour": 8359,
      "renew": 8360,
      "56": 8361,
      "weeks": 8362,
      "headed": 8363,
      "itionally": 8364,
      "debate": 8365,
      "inside": 8366,
      "57": 8367,
      "cancer": 8368,
      "aska": 8369,
      "Mississippi": 8370,
      "isol": 8371,
      "advanced": 8372,
      "critical": 8373,
      "multi": 8374,
      "spect": 8375,
      "producing": 8376,
      "fel": 8377,
      "sess": 8378,
      "Greater": 8379,
      "stances": 8380,
      "bann": 8381,
      "entirely": 8382,
      "53": 8383,
      "link": 8384,
      "correct": 8385,
      "pir": 8386,
      "measures": 8387,
      "rating": 8388,
      "exception": 8389,
      "crown": 8390,
      "democr": 8391,
      "circul": 8392,
      "tourism": 8393,
      "1941": 8394,
      "edia": 8395,
      "Lithuan": 8396,
      "bow": 8397,
      "writer": 8398,
      "Santa": 8399,
      "ns": 8400,
      "ump": 8401,
      "conson": 8402,
      "constitut": 8403,
      "machine": 8404,
      "Area": 8405,
      "Argent": 8406,
      "porters": 8407,
      "descend": 8408,
      "domain": 8409,
      "Yug": 8410,
      "Bureau": 8411,
      "Proto": 8412,
      "vehicles": 8413,
      "advantage": 8414,
      "ancellor": 8415,
      "existed": 8416,
      "pton": 8417,
      "Ant": 8418,
      "1940": 8419,
      "Cambridge": 8420,
      "Liberal": 8421,
      "soil": 8422,
      "successor": 8423,
      "FC": 8424,
      "TC": 8425,
      "infrastructure": 8426,
      "instruments": 8427,
      "Square": 8428,
      "interpret": 8429,
      "amm": 8430,
      "transferred": 8431,
      "fru": 8432,
      "ody": 8433,
      "Afghan": 8434,
      "appropri": 8435,
      "stan": 8436,
      "icon": 8437,
      "Bell": 8438,
      "shop": 8439,
      "Bi": 8440,
      "Line": 8441,
      "merch": 8442,
      "struction": 8443,
      "iance": 8444,
      "introduction": 8445,
      "ients": 8446,
      "Cult": 8447,
      "Men": 8448,
      "Stan": 8449,
      "influential": 8450,
      "fix": 8451,
      "Hospital": 8452,
      "ny": 8453,
      "greatest": 8454,
      "Milit": 8455,
      "170": 8456,
      "matches": 8457,
      "160": 8458,
      "Mes": 8459,
      "icians": 8460,
      "radiation": 8461,
      "genre": 8462,
      "Rev": 8463,
      "weapons": 8464,
      "convent": 8465,
      "Israeli": 8466,
      "Bridge": 8467,
      "susp": 8468,
      "bid": 8469,
      "investig": 8470,
      "transportation": 8471,
      "Sud": 8472,
      "oud": 8473,
      "Assy": 8474,
      "gives": 8475,
      "store": 8476,
      "neighborhood": 8477,
      "retain": 8478,
      "notes": 8479,
      "Yugos": 8480,
      "industries": 8481,
      "foundation": 8482,
      "VI": 8483,
      "slave": 8484,
      "varian": 8485,
      "1961": 8486,
      "haps": 8487,
      "currency": 8488,
      "prep": 8489,
      "funds": 8490,
      "Economic": 8491,
      "weather": 8492,
      "vard": 8493,
      "protected": 8494,
      "depos": 8495,
      "spent": 8496,
      "labour": 8497,
      "coverage": 8498,
      "quad": 8499,
      "Profess": 8500,
      "Mand": 8501,
      "Ari": 8502,
      "Tu": 8503,
      "ranks": 8504,
      "silver": 8505,
      "Such": 8506,
      "dia": 8507,
      "recognition": 8508,
      "strength": 8509,
      "Labor": 8510,
      "discrim": 8511,
      "ouri": 8512,
      "Like": 8513,
      "52": 8514,
      "fought": 8515,
      "output": 8516,
      "flood": 8517,
      "transition": 8518,
      "Artic": 8519,
      "Sou": 8520,
      "candidates": 8521,
      "file": 8522,
      "63": 8523,
      "municipalities": 8524,
      "ET": 8525,
      "lot": 8526,
      "Federation": 8527,
      "printed": 8528,
      "newspapers": 8529,
      "phenomen": 8530,
      "Mark": 8531,
      "Mountains": 8532,
      "extent": 8533,
      "Code": 8534,
      "itors": 8535,
      "Ni": 8536,
      "Athen": 8537,
      "Tro": 8538,
      "snow": 8539,
      "plate": 8540,
      "ski": 8541,
      "Stra": 8542,
      "Bon": 8543,
      "Angl": 8544,
      "sides": 8545,
      "refused": 8546,
      "principles": 8547,
      "deleg": 8548,
      "utions": 8549,
      "sufficient": 8550,
      "abolished": 8551,
      "doctr": 8552,
      "Luther": 8553,
      "Ran": 8554,
      "Nig": 8555,
      "1966": 8556,
      "Cape": 8557,
      "iop": 8558,
      "waves": 8559,
      "Rus": 8560,
      "regarding": 8561,
      "77": 8562,
      "observed": 8563,
      "bil": 8564,
      "88": 8565,
      "decade": 8566,
      "attention": 8567,
      "founder": 8568,
      "rapidly": 8569,
      "theless": 8570,
      "59": 8571,
      "62": 8572,
      "compete": 8573,
      "Prussia": 8574,
      "wanted": 8575,
      "asked": 8576,
      "external": 8577,
      "BM": 8578,
      "iph": 8579,
      "occasion": 8580,
      "Norway": 8581,
      "requirements": 8582,
      "bact": 8583,
      "inated": 8584,
      "iring": 8585,
      "Pop": 8586,
      "enjoy": 8587,
      "Peace": 8588,
      "contributed": 8589,
      "osph": 8590,
      "telephone": 8591,
      "valid": 8592,
      "minimum": 8593,
      "1930s": 8594,
      "ja": 8595,
      "ias": 8596,
      "reaction": 8597,
      "governing": 8598,
      "otic": 8599,
      "effic": 8600,
      "Angeles": 8601,
      "Turkey": 8602,
      "Tibet": 8603,
      "spired": 8604,
      "fit": 8605,
      "decisions": 8606,
      "strate": 8607,
      "representing": 8608,
      "safety": 8609,
      "shap": 8610,
      "Syria": 8611,
      "display": 8612,
      "combat": 8613,
      "Technology": 8614,
      "Ohio": 8615,
      "ois": 8616,
      "hai": 8617,
      "stay": 8618,
      "apart": 8619,
      "aka": 8620,
      "Ministry": 8621,
      "rose": 8622,
      "Tal": 8623,
      "photograph": 8624,
      "steel": 8625,
      "Business": 8626,
      "cohol": 8627,
      "deaths": 8628,
      "mom": 8629,
      "amental": 8630,
      "issance": 8631,
      "cow": 8632,
      "1962": 8633,
      "page": 8634,
      "wich": 8635,
      "exact": 8636,
      "uran": 8637,
      "trust": 8638,
      "lip": 8639,
      "sylvan": 8640,
      "Territory": 8641,
      "yr": 8642,
      "fre": 8643,
      "aug": 8644,
      "representation": 8645,
      "imm": 8646,
      "greatly": 8647,
      "haz": 8648,
      "governed": 8649,
      "disput": 8650,
      "drawn": 8651,
      "1918": 8652,
      "Hun": 8653,
      "itar": 8654,
      "asser": 8655,
      "behavior": 8656,
      "stars": 8657,
      "angle": 8658,
      "categories": 8659,
      "nit": 8660,
      "basket": 8661,
      "Kent": 8662,
      "missions": 8663,
      "shore": 8664,
      "Taiwan": 8665,
      "Fox": 8666,
      "vac": 8667,
      "onian": 8668,
      "visible": 8669,
      "ches": 8670,
      "periods": 8671,
      "aspects": 8672,
      "waters": 8673,
      "collective": 8674,
      "mont": 8675,
      "borders": 8676,
      "connection": 8677,
      "provincial": 8678,
      "codes": 8679,
      "southeast": 8680,
      "ao": 8681,
      "1946": 8682,
      "medium": 8683,
      "solid": 8684,
      "popularity": 8685,
      "Authority": 8686,
      "Sem": 8687,
      "phase": 8688,
      "lives": 8689,
      "circu": 8690,
      "igan": 8691,
      "things": 8692,
      "thetic": 8693,
      "pair": 8694,
      "Even": 8695,
      "doub": 8696,
      "51": 8697,
      "FIFA": 8698,
      "esh": 8699,
      "export": 8700,
      "Television": 8701,
      "actual": 8702,
      "coach": 8703,
      "covers": 8704,
      "branches": 8705,
      "antic": 8706,
      "responsibility": 8707,
      "hypo": 8708,
      "focused": 8709,
      "franch": 8710,
      "interests": 8711,
      "declined": 8712,
      "2nd": 8713,
      "1956": 8714,
      "Byzantine": 8715,
      "confir": 8716,
      "Bla": 8717,
      "suffered": 8718,
      "Denmark": 8719,
      "inking": 8720,
      "personnel": 8721,
      "sed": 8722,
      "twenty": 8723,
      "paralle": 8724,
      "credited": 8725,
      "memory": 8726,
      "apply": 8727,
      "slavery": 8728,
      "settlers": 8729,
      "Anton": 8730,
      "Stock": 8731,
      "myth": 8732,
      "involve": 8733,
      "studied": 8734,
      "genetic": 8735,
      "contained": 8736,
      "illegal": 8737,
      "Arth": 8738,
      "circum": 8739,
      "iate": 8740,
      "Color": 8741,
      "Croat": 8742,
      "prices": 8743,
      "Frederick": 8744,
      "Dou": 8745,
      "jan": 8746,
      "festival": 8747,
      "700": 8748,
      "plus": 8749,
      "69": 8750,
      "smo": 8751,
      "scription": 8752,
      "correspon": 8753,
      "Alexand": 8754,
      "Represent": 8755,
      "shape": 8756,
      "Base": 8757,
      "improved": 8758,
      "stro": 8759,
      "layer": 8760,
      "catal": 8761,
      "ote": 8762,
      "Offic": 8763,
      "ribute": 8764,
      "1963": 8765,
      "democracy": 8766,
      "fleet": 8767,
      "context": 8768,
      "abilities": 8769,
      "ogen": 8770,
      "absol": 8771,
      "ura": 8772,
      "learning": 8773,
      "teaching": 8774,
      "subur": 8775,
      "subjects": 8776,
      "stance": 8777,
      "Sciences": 8778,
      "Anc": 8779,
      "bio": 8780,
      "itals": 8781,
      "separated": 8782,
      "Defense": 8783,
      "zed": 8784,
      "ón": 8785,
      "arrest": 8786,
      "clim": 8787,
      "accounts": 8788,
      "ux": 8789,
      "authors": 8790,
      "See": 8791,
      "appearance": 8792,
      "stories": 8793,
      "registered": 8794,
      "Dun": 8795,
      "ensure": 8796,
      "4th": 8797,
      "Nat": 8798,
      "wid": 8799,
      "Francisco": 8800,
      "tom": 8801,
      "legislature": 8802,
      "pure": 8803,
      "factor": 8804,
      "evolved": 8805,
      "Due": 8806,
      "distinction": 8807,
      "grown": 8808,
      "brevi": 8809,
      "cryst": 8810,
      "Bible": 8811,
      "emen": 8812,
      "Universal": 8813,
      "Lincol": 8814,
      "Wood": 8815,
      "Award": 8816,
      "predominant": 8817,
      "median": 8818,
      "matic": 8819,
      "Conservative": 8820,
      "temperatures": 8821,
      "Av": 8822,
      "Ama": 8823,
      "pa": 8824,
      "Reser": 8825,
      "Spring": 8826,
      "organic": 8827,
      "Hungary": 8828,
      "Lincoln": 8829,
      "Women": 8830,
      "sylvania": 8831,
      "tree": 8832,
      "icts": 8833,
      "strugg": 8834,
      "village": 8835,
      "fresh": 8836,
      "1944": 8837,
      "descript": 8838,
      "250": 8839,
      "promote": 8840,
      "advis": 8841,
      "articles": 8842,
      "daughter": 8843,
      "attempts": 8844,
      "1977": 8845,
      "aven": 8846,
      "household": 8847,
      "hospital": 8848,
      "mond": 8849,
      "locations": 8850,
      "Fam": 8851,
      "ims": 8852,
      "Saudi": 8853,
      "components": 8854,
      "scri": 8855,
      "defense": 8856,
      "resolution": 8857,
      "Tam": 8858,
      "funded": 8859,
      "casting": 8860,
      "root": 8861,
      "prox": 8862,
      "Inc": 8863,
      "Ford": 8864,
      "Tenn": 8865,
      "Corps": 8866,
      "Albert": 8867,
      "forward": 8868,
      "northeast": 8869,
      "obtain": 8870,
      "flat": 8871,
      "abbrevi": 8872,
      "horse": 8873,
      "Bat": 8874,
      "tons": 8875,
      "therap": 8876,
      "occupation": 8877,
      "planning": 8878,
      "movements": 8879,
      "Guine": 8880,
      "charter": 8881,
      "ication": 8882,
      "Sky": 8883,
      "Stu": 8884,
      "plural": 8885,
      "score": 8886,
      "experienced": 8887,
      "purchased": 8888,
      "dating": 8889,
      "scientists": 8890,
      "universal": 8891,
      "colour": 8892,
      "inations": 8893,
      "cular": 8894,
      "Tim": 8895,
      "recognised": 8896,
      "understanding": 8897,
      "parks": 8898,
      "matters": 8899,
      "Jan": 8900,
      "instrument": 8901,
      "grounds": 8902,
      "converted": 8903,
      "Buddhism": 8904,
      "translation": 8905,
      "SI": 8906,
      "Arthur": 8907,
      "arrange": 8908,
      "alcohol": 8909,
      "aces": 8910,
      "Though": 8911,
      "failure": 8912,
      "compass": 8913,
      "Obama": 8914,
      "pict": 8915,
      "nickn": 8916,
      "Trade": 8917,
      "inno": 8918,
      "liance": 8919,
      "Germans": 8920,
      "capita": 8921,
      "slightly": 8922,
      "54": 8923,
      "shares": 8924,
      "consumption": 8925,
      "conservative": 8926,
      "ault": 8927,
      "Tru": 8928,
      "Execut": 8929,
      "goals": 8930,
      "EE": 8931,
      "height": 8932,
      "FM": 8933,
      "RT": 8934,
      "proportion": 8935,
      "Out": 8936,
      "Journal": 8937,
      "Len": 8938,
      "routes": 8939,
      "Metropolitan": 8940,
      "ratio": 8941,
      "itic": 8942,
      "computers": 8943,
      "ultimately": 8944,
      "mainland": 8945,
      "Cross": 8946,
      "tried": 8947,
      "AP": 8948,
      "composition": 8949,
      "Guard": 8950,
      "broadcasting": 8951,
      "achel": 8952,
      "Pit": 8953,
      "endum": 8954,
      "boundaries": 8955,
      "Kong": 8956,
      "priest": 8957,
      "ulpt": 8958,
      "Communic": 8959,
      "effectively": 8960,
      "needs": 8961,
      "convention": 8962,
      "diversity": 8963,
      "Through": 8964,
      "hydrogen": 8965,
      "affairs": 8966,
      "inspired": 8967,
      "mountains": 8968,
      "assess": 8969,
      "electricity": 8970,
      "iki": 8971,
      "itan": 8972,
      "vie": 8973,
      "NCA": 8974,
      "selling": 8975,
      "hundred": 8976,
      "Met": 8977,
      "targe": 8978,
      "manager": 8979,
      "distributed": 8980,
      "About": 8981,
      "Child": 8982,
      "ception": 8983,
      "compounds": 8984,
      "Brun": 8985,
      "gard": 8986,
      "Pun": 8987,
      "oa": 8988,
      "extin": 8989,
      "images": 8990,
      "castle": 8991,
      "ither": 8992,
      "disp": 8993,
      "note": 8994,
      "gradually": 8995,
      "ila": 8996,
      "jour": 8997,
      "uration": 8998,
      "solar": 8999,
      "Sudan": 9000,
      "describes": 9001,
      "undergraduate": 9002,
      "Ram": 9003,
      "History": 9004,
      "spiritual": 9005,
      "facility": 9006,
      "Sunday": 9007,
      "conquest": 9008,
      "Peninsula": 9009,
      "choice": 9010,
      "phones": 9011,
      "mining": 9012,
      "centers": 9013,
      "Sah": 9014,
      "oles": 9015,
      "theatre": 9016,
      "ranking": 9017,
      "15th": 9018,
      "career": 9019,
      "Hong": 9020,
      "Langu": 9021,
      "reforms": 9022,
      "benefits": 9023,
      "corporate": 9024,
      "oppon": 9025,
      "hus": 9026,
      "directed": 9027,
      "parliamentary": 9028,
      "judicial": 9029,
      "representative": 9030,
      "Executive": 9031,
      "dependence": 9032,
      "respect": 9033,
      "publishing": 9034,
      "Hispanic": 9035,
      "placing": 9036,
      "iders": 9037,
      "Ak": 9038,
      "intel": 9039,
      "Aff": 9040,
      "covering": 9041,
      "limits": 9042,
      "credit": 9043,
      "criticized": 9044,
      "assigned": 9045,
      "ulate": 9046,
      "las": 9047,
      "think": 9048,
      "13th": 9049,
      "Louisiana": 9050,
      "Der": 9051,
      "reds": 9052,
      "ownership": 9053,
      "Military": 9054,
      "migration": 9055,
      "Lim": 9056,
      "historically": 9057,
      "category": 9058,
      "Ancient": 9059,
      "obtained": 9060,
      "astronom": 9061,
      "Similar": 9062,
      "plicit": 9063,
      "approv": 9064,
      "regime": 9065,
      "gam": 9066,
      "fundamental": 9067,
      "Ah": 9068,
      "mil": 9069,
      "tical": 9070,
      "RS": 9071,
      "Rob": 9072,
      "ruling": 9073,
      "usual": 9074,
      "watch": 9075,
      "1958": 9076,
      "voters": 9077,
      "terror": 9078,
      "conduct": 9079,
      "column": 9080,
      "Administration": 9081,
      "intellect": 9082,
      "veget": 9083,
      "Pas": 9084,
      "Alban": 9085,
      "representatives": 9086,
      "erals": 9087,
      "boy": 9088,
      "crete": 9089,
      "efficient": 9090,
      "dang": 9091,
      "pione": 9092,
      "Guinea": 9093,
      "iest": 9094,
      "Catal": 9095,
      "rif": 9096,
      "edge": 9097,
      "visitors": 9098,
      "Py": 9099,
      "Press": 9100,
      "diag": 9101,
      "collabor": 9102,
      "umin": 9103,
      "cules": 9104,
      "measured": 9105,
      "concerns": 9106,
      "Method": 9107,
      "restricted": 9108,
      "elve": 9109,
      "Welsh": 9110,
      "infant": 9111,
      "challeng": 9112,
      "usc": 9113,
      "strict": 9114,
      "sper": 9115,
      "diverse": 9116,
      "Switzer": 9117,
      "follows": 9118,
      "Marx": 9119,
      "thic": 9120,
      "referendum": 9121,
      "Confeder": 9122,
      "Khan": 9123,
      "Bron": 9124,
      "unemployment": 9125,
      "ampions": 9126,
      "istical": 9127,
      "trial": 9128,
      "Switzerland": 9129,
      "1954": 9130,
      "target": 9131,
      "originated": 9132,
      "Sk": 9133,
      "phosph": 9134,
      "benefit": 9135,
      "transmission": 9136,
      "Nazi": 9137,
      "compris": 9138,
      "Cas": 9139,
      "Ethiop": 9140,
      "foss": 9141,
      "Muham": 9142,
      "component": 9143,
      "Andrew": 9144,
      "Special": 9145,
      "purchase": 9146,
      "libraries": 9147,
      "avian": 9148,
      "Jefferson": 9149,
      "Mob": 9150,
      "oe": 9151,
      "lock": 9152,
      "practical": 9153,
      "translated": 9154,
      "oking": 9155,
      "successfully": 9156,
      "1920s": 9157,
      "Capital": 9158,
      "osis": 9159,
      "dropped": 9160,
      "Field": 9161,
      "advance": 9162,
      "Hungarian": 9163,
      "Wilson": 9164,
      "iciency": 9165,
      "uset": 9166,
      "piece": 9167,
      "unc": 9168,
      "apparent": 9169,
      "narrow": 9170,
      "jobs": 9171,
      "Bish": 9172,
      "sister": 9173,
      "emperor": 9174,
      "Pap": 9175,
      "Dig": 9176,
      "wars": 9177,
      "Amazon": 9178,
      "longest": 9179,
      "Vis": 9180,
      "Well": 9181,
      "license": 9182,
      "throne": 9183,
      "pul": 9184,
      "democratic": 9185,
      "Game": 9186,
      "tren": 9187,
      "statement": 9188,
      "14th": 9189,
      "raw": 9190,
      "1933": 9191,
      "Ali": 9192,
      "rac": 9193,
      "broke": 9194,
      "moment": 9195,
      "symp": 9196,
      "twice": 9197,
      "Conne": 9198,
      "comput": 9199,
      "societies": 9200,
      "Clinton": 9201,
      "volcan": 9202,
      "parents": 9203,
      "Ages": 9204,
      "electrical": 9205,
      "Mexican": 9206,
      "Ten": 9207,
      "pil": 9208,
      "steam": 9209,
      "departments": 9210,
      "bought": 9211,
      "attended": 9212,
      "Foreign": 9213,
      "igins": 9214,
      "Enter": 9215,
      "confirmed": 9216,
      "residence": 9217,
      "vowel": 9218,
      "styles": 9219,
      "studio": 9220,
      "Jord": 9221,
      "gn": 9222,
      "basketball": 9223,
      "Gh": 9224,
      "sculpt": 9225,
      "viewed": 9226,
      "Prote": 9227,
      "strongly": 9228,
      "ona": 9229,
      "acting": 9230,
      "venture": 9231,
      "ying": 9232,
      "generated": 9233,
      "conquered": 9234,
      "Colorado": 9235,
      "coalition": 9236,
      "ilton": 9237,
      "Lords": 9238,
      "cars": 9239,
      "achuset": 9240,
      "Heritage": 9241,
      "monarchy": 9242,
      "umes": 9243,
      "Syd": 9244,
      "judges": 9245,
      "balance": 9246,
      "ifying": 9247,
      "Mol": 9248,
      "Arabia": 9249,
      "Project": 9250,
      "Massachuset": 9251,
      "Ill": 9252,
      "Avenue": 9253,
      "Legisl": 9254,
      "Norman": 9255,
      "1936": 9256,
      "Massachusetts": 9257,
      "dog": 9258,
      "sale": 9259,
      "Global": 9260,
      "Jean": 9261,
      "Lie": 9262,
      "borrow": 9263,
      "Kenn": 9264,
      "racial": 9265,
      "birds": 9266,
      "selection": 9267,
      "biggest": 9268,
      "mud": 9269,
      "Sloven": 9270,
      "absolute": 9271,
      "97": 9272,
      "promoted": 9273,
      "schedul": 9274,
      "Celtic": 9275,
      "Belg": 9276,
      "platform": 9277,
      "Dom": 9278,
      "rub": 9279,
      "120": 9280,
      "PL": 9281,
      "3rd": 9282,
      "drive": 9283,
      "Philippines": 9284,
      "audio": 9285,
      "sand": 9286,
      "laid": 9287,
      "flight": 9288,
      "idency": 9289,
      "murder": 9290,
      "eries": 9291,
      "forests": 9292,
      "passenger": 9293,
      "Jordan": 9294,
      "Sik": 9295,
      "jac": 9296,
      "attacked": 9297,
      "retained": 9298,
      "thousand": 9299,
      "ceremony": 9300,
      "orbit": 9301,
      "oen": 9302,
      "transmit": 9303,
      "push": 9304,
      "setting": 9305,
      "faces": 9306,
      "Missouri": 9307,
      "Danish": 9308,
      "adelph": 9309,
      "miles": 9310,
      "itarian": 9311,
      "Muhammad": 9312,
      "anks": 9313,
      "doctor": 9314,
      "Lar": 9315,
      "administered": 9316,
      "Rug": 9317,
      "dish": 9318,
      "entit": 9319,
      "harmon": 9320,
      "Pier": 9321,
      "trees": 9322,
      "retail": 9323,
      "hands": 9324,
      "kins": 9325,
      "economics": 9326,
      "string": 9327,
      "rugby": 9328,
      "61": 9329,
      "conv": 9330,
      "Colon": 9331,
      "finished": 9332,
      "earthqu": 9333,
      "org": 9334,
      "absor": 9335,
      "exists": 9336,
      "mingham": 9337,
      "origins": 9338,
      "assembly": 9339,
      "Sydney": 9340,
      "ynes": 9341,
      "5th": 9342,
      "ora": 9343,
      "ato": 9344,
      "epis": 9345,
      "Birmingham": 9346,
      "imental": 9347,
      "vehicle": 9348,
      "increases": 9349,
      "Indians": 9350,
      "characteristics": 9351,
      "discovery": 9352,
      "easily": 9353,
      "abandoned": 9354,
      "Southeast": 9355,
      "archae": 9356,
      "possibly": 9357,
      "biological": 9358,
      "Cop": 9359,
      "compat": 9360,
      "becomes": 9361,
      "Province": 9362,
      "participate": 9363,
      "rounded": 9364,
      "boundary": 9365,
      "cool": 9366,
      "Die": 9367,
      "err": 9368,
      "liquid": 9369,
      "businesses": 9370,
      "Pennsylvania": 9371,
      "sciences": 9372,
      "12th": 9373,
      "itz": 9374,
      "iland": 9375,
      "considerable": 9376,
      "owner": 9377,
      "Wars": 9378,
      "Philadelph": 9379,
      "1942": 9380,
      "expression": 9381,
      "Armenian": 9382,
      "Si": 9383,
      "shot": 9384,
      "krit": 9385,
      "1919": 9386,
      "Ath": 9387,
      "gall": 9388,
      "Buddhist": 9389,
      "rational": 9390,
      "defend": 9391,
      "Pur": 9392,
      "Iranian": 9393,
      "cogn": 9394,
      "Norwe": 9395,
      "(),": 9396,
      "roots": 9397,
      "Fle": 9398,
      "atar": 9399,
      "Information": 9400,
      "solution": 9401,
      "1914": 9402,
      "profession": 9403,
      "Fair": 9404,
      "Austrian": 9405,
      "ologists": 9406,
      "1959": 9407,
      "Franklin": 9408,
      "Trad": 9409,
      "ifications": 9410,
      "Article": 9411,
      "cha": 9412,
      "1917": 9413,
      "capable": 9414,
      "faculty": 9415,
      "entry": 9416,
      "Only": 9417,
      "86": 9418,
      "Ang": 9419,
      "perhaps": 9420,
      "otherwise": 9421,
      "utenant": 9422,
      "Democrats": 9423,
      "Greg": 9424,
      "internet": 9425,
      "wire": 9426,
      "raine": 9427,
      "intelligence": 9428,
      "IM": 9429,
      "92": 9430,
      "Pet": 9431,
      "electoral": 9432,
      "Kn": 9433,
      "favour": 9434,
      "Cir": 9435,
      "sections": 9436,
      "Golden": 9437,
      "protocol": 9438,
      "tim": 9439,
      "arma": 9440,
      "pursu": 9441,
      "characterized": 9442,
      "sugar": 9443,
      "neutral": 9444,
      "proposal": 9445,
      "links": 9446,
      "rome": 9447,
      "physics": 9448,
      "theories": 9449,
      "Rol": 9450,
      "Cathedral": 9451,
      "drew": 9452,
      "guitar": 9453,
      "Space": 9454,
      "integrated": 9455,
      "ographic": 9456,
      "ruption": 9457,
      "baseball": 9458,
      "Jim": 9459,
      "ading": 9460,
      "Exam": 9461,
      "cies": 9462,
      "drum": 9463,
      "gue": 9464,
      "Local": 9465,
      "ais": 9466,
      "hub": 9467,
      "ito": 9468,
      "apol": 9469,
      "'.": 9470,
      "processing": 9471,
      "reflect": 9472,
      "fest": 9473,
      "DC": 9474,
      "mind": 9475,
      "religions": 9476,
      "Disney": 9477,
      "rein": 9478,
      "datab": 9479,
      "Agency": 9480,
      "indicate": 9481,
      "enem": 9482,
      "Why": 9483,
      "audience": 9484,
      "fertil": 9485,
      "owners": 9486,
      "tools": 9487,
      "Tel": 9488,
      "vak": 9489,
      "Lee": 9490,
      "Philadelphia": 9491,
      "Ok": 9492,
      "treated": 9493,
      "Swiss": 9494,
      "grant": 9495,
      "Medicine": 9496,
      "substantial": 9497,
      "draft": 9498,
      "Iceland": 9499,
      "Rugby": 9500,
      "gate": 9501,
      "ture": 9502,
      "safe": 9503,
      "Home": 9504,
      "heim": 9505,
      "useful": 9506,
      "moral": 9507,
      "vy": 9508,
      "ABC": 9509,
      "Dam": 9510,
      "artist": 9511,
      "Michigan": 9512,
      "Services": 9513,
      "Baby": 9514,
      "cultiv": 9515,
      "Sand": 9516,
      "Clar": 9517,
      "osex": 9518,
      "programme": 9519,
      "Arist": 9520,
      "modified": 9521,
      "implemented": 9522,
      "ultan": 9523,
      "autonomous": 9524,
      "Hitler": 9525,
      "rhy": 9526,
      "izon": 9527,
      "polar": 9528,
      "concentration": 9529,
      "Card": 9530,
      "Fe": 9531,
      "Little": 9532,
      "agues": 9533,
      "diseases": 9534,
      "SR": 9535,
      "dios": 9536,
      "fiction": 9537,
      "Boy": 9538,
      "alin": 9539,
      "courses": 9540,
      "ashion": 9541,
      "overseas": 9542,
      "produces": 9543,
      "NH": 9544,
      "stim": 9545,
      "complet": 9546,
      "expensive": 9547,
      "worship": 9548,
      "atomic": 9549,
      "ched": 9550,
      "charged": 9551,
      "manufactur": 9552,
      "alia": 9553,
      "brain": 9554,
      "justice": 9555,
      "settlements": 9556,
      "controversial": 9557,
      "Vo": 9558,
      "assumed": 9559,
      "Rena": 9560,
      "MT": 9561,
      "án": 9562,
      "Forest": 9563,
      "Good": 9564,
      "commander": 9565,
      "swe": 9566,
      "1953": 9567,
      "scene": 9568,
      "eness": 9569,
      "Castle": 9570,
      "screen": 9571,
      "NCAA": 9572,
      "Master": 9573,
      "Ros": 9574,
      "ss": 9575,
      "Inte": 9576,
      "Sans": 9577,
      "calls": 9578,
      "items": 9579,
      "Polit": 9580,
      "males": 9581,
      "spending": 9582,
      "criticism": 9583,
      "olid": 9584,
      "1955": 9585,
      "passengers": 9586,
      "Plat": 9587,
      "quite": 9588,
      "Canal": 9589,
      "sovereignty": 9590,
      "Way": 9591,
      "Ly": 9592,
      "gene": 9593,
      "usalem": 9594,
      "historians": 9595,
      "1912": 9596,
      "civilian": 9597,
      "estimates": 9598,
      "Six": 9599,
      "winner": 9600,
      "1937": 9601,
      "Tol": 9602,
      "Edin": 9603,
      "lets": 9604,
      "immigration": 9605,
      "oured": 9606,
      "bourne": 9607,
      "Report": 9608,
      "McC": 9609,
      "Jerusalem": 9610,
      "Afghanistan": 9611,
      "Down": 9612,
      "consumer": 9613,
      "Rio": 9614,
      "1929": 9615,
      "celebrated": 9616,
      "beat": 9617,
      "Hamilton": 9618,
      "verb": 9619,
      "Premier": 9620,
      "adult": 9621,
      "enses": 9622,
      "massive": 9623,
      "Hay": 9624,
      "storage": 9625,
      "Edinburgh": 9626,
      "ocks": 9627,
      "server": 9628,
      "zona": 9629,
      "aph": 9630,
      "fill": 9631,
      "deploy": 9632,
      "territorial": 9633,
      "empt": 9634,
      "Anglican": 9635,
      "municipality": 9636,
      "reducing": 9637,
      "copper": 9638,
      "urally": 9639,
      "rey": 9640,
      "mph": 9641,
      "Upper": 9642,
      "logo": 9643,
      "holders": 9644,
      "Quebec": 9645,
      "strike": 9646,
      "partnership": 9647,
      "Norwegian": 9648,
      "Marine": 9649,
      "installed": 9650,
      "minster": 9651,
      "curs": 9652,
      "achelor": 9653,
      "situated": 9654,
      "Oreg": 9655,
      "involves": 9656,
      "Bapt": 9657,
      "chart": 9658,
      "technique": 9659,
      "Phoen": 9660,
      "Beach": 9661,
      "DA": 9662,
      "perior": 9663,
      "homes": 9664,
      "Rico": 9665,
      "eigh": 9666,
      "particles": 9667,
      "capture": 9668,
      "taught": 9669,
      "assistance": 9670,
      "Ukrain": 9671,
      "SE": 9672,
      "inger": 9673,
      "opinion": 9674,
      "mere": 9675,
      "mile": 9676,
      "pray": 9677,
      "aling": 9678,
      "Belgium": 9679,
      "Kur": 9680,
      "feel": 9681,
      "Additionally": 9682,
      "Pra": 9683,
      "advertising": 9684,
      "Win": 9685,
      "races": 9686,
      "pred": 9687,
      "10th": 9688,
      "Romans": 9689,
      "neur": 9690,
      "iy": 9691,
      "concluded": 9692,
      "floor": 9693,
      "Slavic": 9694,
      "parallel": 9695,
      "Decl": 9696,
      "duties": 9697,
      "Johann": 9698,
      "causing": 9699,
      "correspond": 9700,
      "mart": 9701,
      "inhab": 9702,
      "phrase": 9703,
      "adapt": 9704,
      "1952": 9705,
      "Father": 9706,
      "Mun": 9707,
      "87": 9708,
      "inary": 9709,
      "organisation": 9710,
      "restored": 9711,
      "Arizona": 9712,
      "decor": 9713,
      "Az": 9714,
      "aux": 9715,
      "Hal": 9716,
      "surrender": 9717,
      "compress": 9718,
      "commissioned": 9719,
      "extension": 9720,
      "Unlike": 9721,
      "Trust": 9722,
      "emed": 9723,
      "extremely": 9724,
      "Exchange": 9725,
      "CBS": 9726,
      "Low": 9727,
      "Phys": 9728,
      "eless": 9729,
      "emb": 9730,
      "itness": 9731,
      "ennium": 9732,
      "tag": 9733,
      "Alf": 9734,
      "ners": 9735,
      "gence": 9736,
      "concerned": 9737,
      "Kansas": 9738,
      "1938": 9739,
      "accor": 9740,
      "1910": 9741,
      "alongside": 9742,
      "Current": 9743,
      "Head": 9744,
      "withdraw": 9745,
      "attributed": 9746,
      "Nev": 9747,
      "intend": 9748,
      "says": 9749,
      "cricket": 9750,
      "parent": 9751,
      "inhabited": 9752,
      "raise": 9753,
      "index": 9754,
      "itime": 9755,
      "changing": 9756,
      "printing": 9757,
      "experiment": 9758,
      "rebel": 9759,
      "gi": 9760,
      "atmosphere": 9761,
      "wick": 9762,
      "pressed": 9763,
      "plane": 9764,
      "esty": 9765,
      "lose": 9766,
      "CN": 9767,
      "Tok": 9768,
      "perce": 9769,
      "issions": 9770,
      "accused": 9771,
      "approval": 9772,
      "involving": 9773,
      "reading": 9774,
      "jacent": 9775,
      "hundreds": 9776,
      "iat": 9777,
      "rix": 9778,
      "Director": 9779,
      "Front": 9780,
      "HD": 9781,
      "choose": 9782,
      "expect": 9783,
      "1000": 9784,
      "fat": 9785,
      "Gib": 9786,
      "acce": 9787,
      "bellion": 9788,
      "elev": 9789,
      "restrictions": 9790,
      "relationships": 9791,
      "scape": 9792,
      "ublin": 9793,
      "Transport": 9794,
      "ori": 9795,
      "Juan": 9796,
      "heritage": 9797,
      "satis": 9798,
      "tact": 9799,
      "discrimination": 9800,
      "protein": 9801,
      "Bengal": 9802,
      "concepts": 9803,
      "Memorial": 9804,
      "penalty": 9805,
      "Chancellor": 9806,
      "Maur": 9807,
      "RA": 9808,
      "Madison": 9809,
      "89": 9810,
      "Stalin": 9811,
      "announce": 9812,
      "1943": 9813,
      "defence": 9814,
      "Allied": 9815,
      "Kennedy": 9816,
      "touch": 9817,
      "lyn": 9818,
      "valley": 9819,
      "GB": 9820,
      "ester": 9821,
      "ogical": 9822,
      "judge": 9823,
      "championship": 9824,
      "Bowl": 9825,
      "Antar": 9826,
      "Dur": 9827,
      "molecules": 9828,
      "pes": 9829,
      "graphic": 9830,
      "ministers": 9831,
      "Film": 9832,
      "chairman": 9833,
      "hier": 9834,
      "shar": 9835,
      "Renaissance": 9836,
      "mechanical": 9837,
      "visual": 9838,
      "Patri": 9839,
      "geomet": 9840,
      "entity": 9841,
      "passing": 9842,
      "awa": 9843,
      "regularly": 9844,
      "entitled": 9845,
      "populous": 9846,
      "voice": 9847,
      "Moroc": 9848,
      "DS": 9849,
      "crimes": 9850,
      "1957": 9851,
      "researchers": 9852,
      "Vice": 9853,
      "volunte": 9854,
      "strategy": 9855,
      "Westminster": 9856,
      "Nep": 9857,
      "Song": 9858,
      "historian": 9859,
      "prise": 9860,
      "repeated": 9861,
      "Op": 9862,
      "hag": 9863,
      "stret": 9864,
      "ordinary": 9865,
      "walls": 9866,
      "Czech": 9867,
      "Mir": 9868,
      "chestra": 9869,
      "gment": 9870,
      "Americas": 9871,
      "Vienna": 9872,
      "descendants": 9873,
      "Region": 9874,
      "partly": 9875,
      "ruler": 9876,
      "Villa": 9877,
      "anton": 9878,
      "isen": 9879,
      "Awards": 9880,
      "cat": 9881,
      "alleged": 9882,
      "Darwin": 9883,
      "Liver": 9884,
      "Command": 9885,
      "aqu": 9886,
      "assets": 9887,
      "moder": 9888,
      "establishing": 9889,
      "ares": 9890,
      "trol": 9891,
      "distinguish": 9892,
      "therapy": 9893,
      "Fried": 9894,
      "denomin": 9895,
      "arante": 9896,
      "Lew": 9897,
      "shoot": 9898,
      "appropriate": 9899,
      "doctrine": 9900,
      "1922": 9901,
      "lasted": 9902,
      "EM": 9903,
      "ierra": 9904,
      "expo": 9905,
      "You": 9906,
      "Winter": 9907,
      "inaug": 9908,
      "legit": 9909,
      "cold": 9910,
      "continuous": 9911,
      "mist": 9912,
      "faced": 9913,
      "affiliated": 9914,
      "Duch": 9915,
      "quot": 9916,
      "consisted": 9917,
      "Within": 9918,
      "Sanskrit": 9919,
      "Seven": 9920,
      "governmental": 9921,
      "confer": 9922,
      "Pass": 9923,
      "Until": 9924,
      "roles": 9925,
      "Best": 9926,
      "trains": 9927,
      "lapse": 9928,
      "mm": 9929,
      "adap": 9930,
      "movie": 9931,
      "ii": 9932,
      "Fund": 9933,
      "adjacent": 9934,
      "oren": 9935,
      "anz": 9936,
      "Youn": 9937,
      "symbols": 9938,
      "Third": 9939,
      "collections": 9940,
      "dispute": 9941,
      "UE": 9942,
      "Dal": 9943,
      "gs": 9944,
      "weekly": 9945,
      "love": 9946,
      "incident": 9947,
      "amounts": 9948,
      "una": 9949,
      "6th": 9950,
      "doing": 9951,
      "encing": 9952,
      "construct": 9953,
      "expedition": 9954,
      "Ont": 9955,
      "seasons": 9956,
      "Reserve": 9957,
      "sav": 9958,
      "varieties": 9959,
      "Iraqi": 9960,
      "dem": 9961,
      "powered": 9962,
      "testing": 9963,
      "ranged": 9964,
      "suggests": 9965,
      "Vene": 9966,
      "connect": 9967,
      "residential": 9968,
      "cited": 9969,
      "apore": 9970,
      "villages": 9971,
      "olics": 9972,
      "holder": 9973,
      "estate": 9974,
      "Leban": 9975,
      "Dy": 9976,
      "reaching": 9977,
      "abul": 9978,
      "Leon": 9979,
      "94": 9980,
      "Contin": 9981,
      "subsidi": 9982,
      "fishing": 9983,
      "bla": 9984,
      "plied": 9985,
      "excess": 9986,
      "begun": 9987,
      "Bru": 9988,
      "atol": 9989,
      "explo": 9990,
      "Finland": 9991,
      "Alaska": 9992,
      "encod": 9993,
      "loan": 9994,
      "Jos": 9995,
      "1932": 9996,
      "Carl": 9997,
      "zen": 9998,
      "shell": 9999,
      "Ontario": 10000,
      "Saf": 10001,
      "saying": 10002,
      "Declaration": 10003,
      "rations": 10004,
      "canon": 10005,
      "1930": 10006,
      "Origin": 10007,
      "scen": 10008,
      "Catholics": 10009,
      "beach": 10010,
      "magn": 10011,
      "ateur": 10012,
      "Defence": 10013,
      "Son": 10014,
      "assum": 10015,
      "populated": 10016,
      "Regional": 10017,
      "dictions": 10018,
      "rarely": 10019,
      "Singapore": 10020,
      "define": 10021,
      "varies": 10022,
      "finding": 10023,
      "Communications": 10024,
      "Bangl": 10025,
      "Babylon": 10026,
      "fashion": 10027,
      "rial": 10028,
      "Daily": 10029,
      "linear": 10030,
      "Malays": 10031,
      "rip": 10032,
      "legally": 10033,
      "committed": 10034,
      "72": 10035,
      "Banglades": 10036,
      "entertainment": 10037,
      "Moscow": 10038,
      "Hell": 10039,
      "lad": 10040,
      "reh": 10041,
      "Prior": 10042,
      "Baltic": 10043,
      "vant": 10044,
      "zz": 10045,
      "rison": 10046,
      "unable": 10047,
      "occasionally": 10048,
      "skin": 10049,
      "phe": 10050,
      "IEC": 10051,
      "copies": 10052,
      "pronounced": 10053,
      "coup": 10054,
      "Language": 10055,
      "fine": 10056,
      "ED": 10057,
      "pig": 10058,
      "paint": 10059,
      "guarante": 10060,
      "osexual": 10061,
      "Lis": 10062,
      "assass": 10063,
      "ão": 10064,
      "descent": 10065,
      "streets": 10066,
      "Eston": 10067,
      "heads": 10068,
      "gather": 10069,
      "ette": 10070,
      "ranging": 10071,
      "Oregon": 10072,
      "reserves": 10073,
      "Lo": 10074,
      "option": 10075,
      "fal": 10076,
      "conven": 10077,
      "youth": 10078,
      "fewer": 10079,
      "metric": 10080,
      "Balt": 10081,
      "hockey": 10082,
      "isations": 10083,
      "Princip": 10084,
      "enforcement": 10085,
      "aer": 10086,
      "lake": 10087,
      "Historic": 10088,
      "9th": 10089,
      "Las": 10090,
      "TA": 10091,
      "salt": 10092,
      "kan": 10093,
      "sequences": 10094,
      "ideal": 10095,
      "Gaul": 10096,
      "mathematics": 10097,
      "Kir": 10098,
      "Top": 10099,
      "females": 10100,
      "aya": 10101,
      "EG": 10102,
      "perfect": 10103,
      "Finn": 10104,
      "sul": 10105,
      "stig": 10106,
      "defines": 10107,
      "Vatic": 10108,
      "stores": 10109,
      "DV": 10110,
      "explicit": 10111,
      "1934": 10112,
      "1951": 10113,
      "bac": 10114,
      "mount": 10115,
      "tests": 10116,
      "patterns": 10117,
      "technologies": 10118,
      "Indonesia": 10119,
      "bear": 10120,
      "inners": 10121,
      "guide": 10122,
      "Palestinian": 10123,
      "lago": 10124,
      "grass": 10125,
      "Melbourne": 10126,
      "reduction": 10127,
      "olas": 10128,
      "alliance": 10129,
      "compreh": 10130,
      "preserved": 10131,
      "twelve": 10132,
      "Maryland": 10133,
      "pled": 10134,
      "Sony": 10135,
      "cers": 10136,
      "pick": 10137,
      "rays": 10138,
      "Luc": 10139,
      "supporting": 10140,
      "prepar": 10141,
      "Kaz": 10142,
      "archy": 10143,
      "Ren": 10144,
      "editions": 10145,
      "bourg": 10146,
      "Rog": 10147,
      "producer": 10148,
      "Argentina": 10149,
      "Real": 10150,
      "Cuba": 10151,
      "Sierra": 10152,
      "Cypr": 10153,
      "logic": 10154,
      "distinguished": 10155,
      "Vatican": 10156,
      "vessels": 10157,
      "shift": 10158,
      "lavia": 10159,
      "hill": 10160,
      "throw": 10161,
[...]
